TRT-101401-EntropyCalibration2
pixel_values: 3c010a14
ONNXTRT_Broadcast_5676_output: 32074ebd
/model/language_model/model/layers.12/input_layernorm/Mul_output_0: 3de80632
/Gather_output_0: 3c010a14
ONNXTRT_Broadcast_3571_output: 3ae5e8d2
/Gather_1_output_0: 3c010a14
/model/language_model/model/layers.9/post_attention_layernorm/Cast_output_0: 40ff9f46
/Gather_2_output_0: 3c010a14
/model/language_model/model/layers.13/self_attn/q_norm/Mul_1_output_0: 3dc473ae
/Gather_3_output_0: 3c010a14
/model/embed_tokens/Gather_output_0: 3a3e96ce
/model/vision_model/vision_model/embeddings/Reshape_output_0: 3c010a14
/model/vision_model/vision_model/embeddings/Transpose_output_0: 3c010a14
/model/vision_model/vision_model/embeddings/Reshape_1_output_0: 3c010a14
/model/vision_model/vision_model/embeddings/Reshape_2_output_0: 3c010a14
/model/vision_model/vision_model/embeddings/Transpose_1_output_0: 3c010a14
/model/vision_model/vision_model/embeddings/Reshape_3_output_0: 3c010a14
/model/vision_model/vision_model/embeddings/Reshape_4_output_0: 3c010a14
/model/vision_model/vision_model/embeddings/Transpose_2_output_0: 3c010a14
/model/vision_model/vision_model/embeddings/Reshape_5_output_0: 3c010a14
/model/vision_model/vision_model/embeddings/Reshape_6_output_0: 3c010a14
/model/vision_model/vision_model/embeddings/Transpose_3_output_0: 3c010a14
/model/vision_model/vision_model/embeddings/Reshape_7_output_0: 3c010a14
/model/vision_model/vision_model/embeddings/Concat_output_0: 3c010a14
/model/vision_model/vision_model/embeddings/Cast_output_0: 3c010a14
backbone.model.vision_model.vision_model.embeddings.patch_embedding.weight_output: 3a123295
/model/vision_model/vision_model/embeddings/patch_embedding/Gemm_output: 3c337d65
backbone.model.vision_model.vision_model.embeddings.patch_embedding.bias_output: 3c9036fe
ONNXTRT_Broadcast_output: 3c9036fe
/model/vision_model/vision_model/embeddings/patch_embedding/Gemm_output_0: 3ccd79d9
onnx::Resize_8769_output: 3d90a68d
/model/vision_model/vision_model/embeddings/Resize_output_0: 3d5d6ba1
/model/vision_model/vision_model/embeddings/Reshape_8_output_0: 3d5d6ba1
/model/vision_model/vision_model/embeddings/Transpose_4_output_0: 3d5d6ba1
/model/vision_model/vision_model/embeddings/Cast_1_output_0: 3d5d6ba1
/model/vision_model/vision_model/embeddings/Concat_1_output_0: 3d5d6ba1
/model/language_model/model/layers.2/self_attn/k_norm/Pow_output_0: 3cb0c2c6
/model/vision_model/vision_model/embeddings/Unsqueeze_output_0: 3d5d6ba1
ONNXTRT_Broadcast_14_output: 3ccd79d9
/model/vision_model/vision_model/embeddings/Add_output_0: 3d68fca7
/model/vision_model/vision_model/embeddings/Gather_output_0: 3d68fca7
/model/language_model/model/layers.4/self_attn/q_proj/MatMul_output_0: 3d33d716
/model/language_model/model/layers.5/mlp/down_proj/MatMul_output_0: 3dcbe646
ONNXTRT_Broadcast_7009_output: 3c810a14
ONNXTRT_Broadcast_6764_output: 3b18553a
/model/language_model/model/layers.3/self_attn/q_norm/Constant_2_output_0_output: 32074ebd
/model/language_model/model/layers.14/self_attn/Add_2_output_0: 4480ff02
ONNXTRT_Broadcast_5449_output: 3d953b16
/model/language_model/model/layers.13/mlp/gate_proj/MatMul_output_0: 3d67af5a
/model/language_model/model/layers.8/self_attn/q_norm/Cast_output_0: 3dadc3be
/model/language_model/model/layers.7/self_attn/Unsqueeze_10_output_0: 3ef3d49c
/model/language_model/model/layers.7/post_attention_layernorm/Sqrt_output_0: 40546a58
/model/language_model/model/layers.7/self_attn/q_norm/Constant_3_output_0_output: 3c010a14
/model/language_model/model/layers.2/mlp/down_proj/MatMul_output_0: 41004139
/model/language_model/model/layers.3/self_attn/Slice_4_output_0: 4400f9f3
/model/language_model/model/layers.13/post_attention_layernorm/Cast_output_0: 429e66b2
/model/language_model/model/layers.12/self_attn/Mul_output_0: 3d6db596
/model/language_model/model/layers.8/post_attention_layernorm/Mul_1_output_0: 3d490945
/model/language_model/model/layers.9/input_layernorm/Constant_3_output_0_output: 3c010a14
/model/language_model/model/layers.3/mlp/act_fn/Sigmoid_output_0: 3bf1a9d7
/model/language_model/model/layers.7/self_attn/Concat_4_output_0: 3ef3d484
ONNXTRT_Broadcast_5983_output: 3d2962e6
/model/language_model/model/layers.7/self_attn/Neg_1_output_0: 3efc8893
ONNXTRT_Broadcast_6252_output: 3ac3af1e
onnx::MatMul_9917_output: 3b265dfc
/model/language_model/model/layers.3/self_attn/k_norm/Constant_2_output_0_output: 32074ebd
onnx::MatMul_10018_output: 3ac3af1e
/model/vision_model/vision_model/embeddings/Slice_output_0: 3d68b08c
/model/vision_model/vision_model/embeddings/Transpose_5_output_0: 3d68b08c
/model/vision_model/vision_model/embeddings/Reshape_9_output_0: 3d68b08c
/model/language_model/model/layers.12/self_attn/Transpose_1_output_0: 3e9b2fdf
/model/language_model/model/layers.14/input_layernorm/Div_output_0: 3b1a6525
backbone.model.language_model.model.layers.2.self_attn.k_norm.weight_output: 3d657dfc
/model/language_model/model/layers.13/self_attn/Transpose_3_output_0: 3db3f66a
ONNXTRT_Broadcast_6214_output: 3c257163
ONNXTRT_Broadcast_5951_output: 3ab4a489
/model/language_model/model/layers.12/self_attn/k_norm/Cast_1_output_0: 3d3d1a09
/model/language_model/model/layers.8/post_attention_layernorm/Sqrt_output_0: 40546a03
/model/language_model/model/layers.11/self_attn/k_norm/Div_output_0: 3c3fbc78
/model/language_model/model/layers.12/self_attn/Expand_1_output_0: 3e54e1d5
ONNXTRT_Broadcast_5692_output: 3c010a14
/model/language_model/model/layers.14/post_attention_layernorm/Constant_2_output_0_output: 32074ebd
ONNXTRT_Broadcast_6210_output: 32074ebd
/model/language_model/model/layers.10/self_attn/k_norm/Constant_3_output_0_output: 3c010a14
/model/language_model/model/layers.12/self_attn/Slice_3_output_0: 3d8cb086
/model/language_model/model/layers.4/self_attn/k_norm/Constant_3_output_0_output: 3c010a14
/model/language_model/model/layers.10/self_attn/k_norm/Mul_1_output_0: 3f0fea9f
/model/language_model/model/layers.12/self_attn/k_norm/Constant_3_output_0_output: 3c010a14
/model/language_model/model/layers.5/mlp/up_proj/MatMul_output_0: 3cf54d8c
/model/language_model/model/layers.11/input_layernorm/Pow_output_0: 49fb7917
/model/language_model/model/layers.12/self_attn/Slice_4_output_0: 4400f9f3
/model/language_model/model/layers.7/self_attn/Slice_2_output_0: 3e4c58bc
/model/language_model/model/layers.2/post_attention_layernorm/ReduceMean_output_0: 3d47ec9e
/model/language_model/model/layers.8/self_attn/Concat_3_output_0: 3e1d6b1f
/model/language_model/model/layers.4/self_attn/Reshape_1_output_0: 3d01c692
ONNXTRT_Broadcast_6246_output: 32074ebd
/model/vision_model/vision_model/embeddings/Slice_1_output_0: 3d68fca7
/model/vision_model/vision_model/embeddings/Transpose_6_output_0: 3d68fca7
/model/vision_model/vision_model/embeddings/Reshape_10_output_0: 3d68fca7
/model/language_model/model/layers.11/post_attention_layernorm/Mul_1_output_0: 3d736df2
/model/language_model/model/layers.9/mlp/down_proj/MatMul_output_0: 3d35203d
backbone.model.language_model.model.layers.12.self_attn.q_norm.weight_output: 3ced06de
backbone.model.language_model.model.layers.12.input_layernorm.weight_output: 3cd3cd1a
onnx::MatMul_10038_output: 3ad7e7d0
ONNXTRT_Broadcast_5423_output: 32074ebd
/model/language_model/model/layers.8/self_attn/Softmax_output_0: 3a14a953
/model/language_model/model/layers.8/self_attn/MatMul_1_output_0: 3c2e9f4e
/model/language_model/model/layers.15/self_attn/k_norm/Pow_output_0: 414455dd
/model/language_model/model/layers.8/self_attn/Transpose_output_0: 3e1d6b1f
/model/language_model/model/layers.2/self_attn/o_proj/MatMul_output_0: 3cc966e3
/model/language_model/model/layers.13/input_layernorm/ReduceMean_output_0: 44aecdf4
onnx::MatMul_9882_output: 3b0938d2
ONNXTRT_Broadcast_3548_output: 3b053bf8
/model/language_model/model/layers.12/mlp/up_proj/MatMul_output_0: 3d2e71a0
/model/language_model/model/layers.8/self_attn/k_norm/Constant_output_0_output: 3c810a14
/model/language_model/model/layers.13/self_attn/q_norm/Pow_output_0: 402d9301
ONNXTRT_Broadcast_5160_output: 3c348143
/model/language_model/model/layers.7/self_attn/q_norm/Mul_1_output_0: 3e04c9ec
/model/language_model/model/layers.15/self_attn/Unsqueeze_19_output_0: 3e974f2f
/model/language_model/model/layers.9/Add_1_output_0: 40ff9f2b
/model/language_model/model/layers.6/self_attn/Neg_1_output_0: 3f302559
/model/language_model/model/layers.13/self_attn/Mul_8_output_0: 3e22898e
ONNXTRT_Broadcast_6226_output: 3c010a14
/model/language_model/model/layers.11/self_attn/Mul_3_output_0: 3d22725e
backbone.model.language_model.model.layers.6.self_attn.k_norm.weight_output: 3d8e40c2
/model/vision_model/vision_model/embeddings/Slice_2_output_0: 3d6908d4
/model/vision_model/vision_model/embeddings/Transpose_7_output_0: 3d6908d4
/model/vision_model/vision_model/embeddings/Reshape_11_output_0: 3d6908d4
/model/language_model/model/layers.3/self_attn/Slice_3_output_0: 3f3dbb6c
/model/language_model/model/layers.12/self_attn/k_norm/Cast_output_0: 3ef4d723
/model/language_model/model/layers.12/self_attn/q_norm/ReduceMean_output_0: 3f2d0426
/model/language_model/model/layers.12/self_attn/q_norm/Pow_output_0: 40bf03c9
ONNXTRT_Broadcast_6233_output: 3c810a14
ONNXTRT_Broadcast_6237_output: 3c010a14
/model/language_model/model/layers.12/self_attn/q_norm/Div_output_0: 3b993d5a
/model/language_model/model/layers.12/self_attn/q_norm/Add_output_0: 3f2d0426
ONNXTRT_Broadcast_6244_output: 3c810a14
ONNXTRT_Broadcast_4898_output: 3c810a14
ONNXTRT_Broadcast_6235_output: 32074ebd
backbone.model.language_model.model.layers.9.post_attention_layernorm.weight_output: 3bfd2c59
/model/language_model/model/layers.12/self_attn/k_proj/MatMul_output_0: 3ef4d723
/model/language_model/model/layers.13/self_attn/q_norm/ReduceMean_output_0: 3eda7444
ONNXTRT_Broadcast_5096_output: 3a367841
/model/language_model/model/layers.10/self_attn/q_norm/Mul_1_output_0: 3e0ca13b
/model/language_model/model/layers.9/self_attn/Cast_5_output_0: 3a19b367
ONNXTRT_Broadcast_7045_output: 3c810a14
/model/language_model/model/layers.13/input_layernorm/Add_output_0: 44aecdf4
/model/language_model/model/layers.7/post_attention_layernorm/Constant_3_output_0_output: 3c010a14
ONNXTRT_Broadcast_5974_output: 3b000d5b
/model/language_model/model/layers.12/self_attn/Unsqueeze_10_output_0: 3e9b2d41
/model/language_model/model/layers.9/self_attn/k_norm/Constant_2_output_0_output: 32074ebd
onnx::MatMul_10009_output: 3aace0c2
ONNXTRT_Broadcast_5968_output: 32074ebd
onnx::MatMul_9894_output: 3aab7b67
/model/vision_model/vision_model/embeddings/Slice_3_output_0: 3d696a14
/model/vision_model/vision_model/embeddings/Transpose_8_output_0: 3d696a14
/model/vision_model/vision_model/embeddings/Reshape_12_output_0: 3d696a14
/model/language_model/model/layers.14/Add_output_0: 429e81c3
/model/vision_model/vision_model/embeddings/Unsqueeze_1_output_0: 3d68b08c
ONNXTRT_Broadcast_3578_output: 3c010a14
/model/vision_model/vision_model/embeddings/Unsqueeze_2_output_0: 3d68fca7
/model/language_model/model/layers.11/self_attn/Mul_2_output_0: 3e0cc566
/model/vision_model/vision_model/embeddings/Unsqueeze_3_output_0: 3d6908d4
/model/language_model/model/layers.9/mlp/gate_proj/MatMul_output_0: 3d5df1f3
/model/vision_model/vision_model/embeddings/Unsqueeze_4_output_0: 3d696a14
/model/vision_model/vision_model/embeddings/Concat_2_output_0: 3d68fca7
/model/language_model/model/layers.14/self_attn/Neg_1_output_0: 3d9f31dc
ONNXTRT_Broadcast_6241_output: 3b092316
onnx::MatMul_10017_output: 3b092316
ONNXTRT_Broadcast_6481_output: 3c184214
/model/language_model/model/layers.10/self_attn/Transpose_output_0: 3e0ca13b
/model/language_model/model/layers.12/self_attn/Cast_5_output_0: 3a400000
backbone.model.language_model.model.layers.13.post_attention_layernorm.weight_output: 3c48a6fe
/model/language_model/model/layers.6/self_attn/k_norm/Constant_output_0_output: 3c810a14
onnx::MatMul_10071_output: 3aa4f0e2
/model/language_model/model/layers.2/post_attention_layernorm/Constant_output_0_output: 3c810a14
/model/language_model/model/layers.15/self_attn/Mul_2_output_0: 3eab928c
/model/language_model/model/layers.10/input_layernorm/Cast_output_0: 40ff9f2b
ONNXTRT_Broadcast_6220_output: 3aace0c2
ONNXTRT_Broadcast_6431_output: 3a367841
/model/language_model/model/layers.11/self_attn/q_norm/Cast_output_0: 3e5419ec
ONNXTRT_Broadcast_4349_output: 3a8c6f1e
backbone.model.language_model.model.layers.6.input_layernorm.weight_output: 3c1745fc
/model/language_model/model/layers.9/mlp/up_proj/MatMul_output_0: 3d6f441d
/model/language_model/model/layers.7/post_attention_layernorm/ReduceMean_output_0: 44aed4e1
backbone.model.language_model.model.layers.5.input_layernorm.weight_output: 3be81163
ONNXTRT_Broadcast_6742_output: 3c810a14
/model/language_model/model/layers.11/mlp/down_proj/MatMul_output_0: 3d83b232
ONNXTRT_Broadcast_5173_output: 3ac3f6ee
onnx::MatMul_9945_output: 3b195851
ONNXTRT_Broadcast_4383_output: 3ad9e9d4
backbone.model.language_model.model.layers.3.input_layernorm.weight_output: 3beaf102
/model/language_model/model/layers.3/input_layernorm/Div_output_0: 3ca24c20
/model/language_model/model/layers.1/post_attention_layernorm/Sqrt_output_0: 3ca41faa
/model/language_model/model/layers.9/self_attn/Mul_3_output_0: 3d6851e0
/model/language_model/model/layers.4/self_attn/k_norm/Constant_2_output_0_output: 32074ebd
/model/language_model/model/layers.8/self_attn/k_norm/Sqrt_output_0: 3d7e2b3c
/model/language_model/model/layers.3/self_attn/Reshape_output_0: 3d72cb6c
/model/language_model/model/layers.11/self_attn/Reshape_6_output_0: 3dc1336e
/model/language_model/model/layers.9/self_attn/Mul_8_output_0: 3e0ed76b
/model/language_model/model/layers.14/self_attn/Mul_1_output_0: 3d757e5b
/model/language_model/model/layers.8/self_attn/Mul_8_output_0: 3e48d9c8
/model/language_model/model/layers.13/self_attn/k_norm/Mul_1_output_0: 3db3f66a
ONNXTRT_Broadcast_5432_output: 3c810a14
/model/language_model/model/layers.12/self_attn/Transpose_output_0: 3d95d327
ONNXTRT_Broadcast_6239_output: 3ced06de
/model/language_model/model/layers.8/self_attn/Softmax_output: 3a14a953
/model/language_model/model/layers.15/self_attn/q_norm/Constant_2_output_0_output: 32074ebd
/model/language_model/model/layers.15/self_attn/q_norm/Cast_output_0: 3f0973f4
/model/language_model/model/layers.14/post_attention_layernorm/Cast_1_output_0: 3e116d17
/model/language_model/model/layers.2/self_attn/Softmax_output: 3a814285
/model/language_model/model/layers.4/self_attn/q_norm/Pow_output_0: 3dd97b8a
/model/language_model/model/layers.9/self_attn/k_norm/Constant_output_0_output: 3c810a14
/model/language_model/model/layers.12/self_attn/Reshape_7_output_0: 3cfb0776
/model/vision_model/vision_model/embeddings/Pad_output_0: 3d68fca7
/model/language_model/model/layers.14/self_attn/Slice_3_output_0: 3d9f31dc
/model/language_model/model/layers.3/self_attn/Slice_1_output_0: 3e03708e
ONNXTRT_Broadcast_6515_output: 3c010a14
/model/language_model/model/layers.10/Add_output_0: 40ffb039
/model/language_model/model/layers.6/self_attn/Cast_5_output_0: 3a7c78f2
/model/language_model/model/layers.7/input_layernorm/Mul_1_output_0: 3d3b8f3d
onnx::MatMul_9944_output: 3b2f7c99
/model/language_model/model/layers.10/self_attn/Cast_5_output_0: 3a7468d2
ONNXTRT_Broadcast_3845_output: 3c010a14
/model/language_model/model/layers.11/self_attn/Cast_4_output_0: 3a80c183
ONNXTRT_Broadcast_3546_output: 3ad9f52a
ONNXTRT_Broadcast_5966_output: 3c810a14
/model/language_model/model/layers.14/self_attn/Expand_1_output_0: 3e681d68
ONNXTRT_Broadcast_6164_output: 3a367841
/model/language_model/model/layers.11/self_attn/k_norm/Pow_output_0: 407bab6a
/model/language_model/model/layers.3/mlp/up_proj/MatMul_output_0: 3d704f27
/model/language_model/model/layers.12/mlp/act_fn/Mul_output_0: 3cb70f07
/model/language_model/model/layers.7/self_attn/Add_output_0: 3e0ad4d7
/model/language_model/model/layers.7/self_attn/Slice_1_output_0: 3e001f9a
/model/language_model/model/layers.4/self_attn/Transpose_2_output_0: 3cbadcd9
onnx::MatMul_9956_output: 3aab6c49
/model/language_model/model/layers.9/self_attn/q_norm/Constant_2_output_0_output: 32074ebd
/model/language_model/model/layers.14/self_attn/Constant_54_output_0_output: 3a367841
/model/language_model/model/layers.1/self_attn/Unsqueeze_19_output_0: 3c0d858a
/model/language_model/model/layers.12/post_attention_layernorm/Constant_3_output_0_output: 3c010a14
ONNXTRT_Broadcast_5176_output: 3c810a14
onnx::MatMul_9883_output: 3b00b163
/model/language_model/model/layers.9/Add_output_0: 40ff9f46
/model/language_model/model/layers.8/post_attention_layernorm/Add_output_0: 44aed455
/model/language_model/model/layers.10/self_attn/Add_1_output_0: 3f0feba7
/model/language_model/model/layers.8/self_attn/o_proj/MatMul_output_0: 3cc2b2f0
ONNXTRT_Broadcast_6773_output: 3d4fac38
/model/language_model/model/layers.8/self_attn/Reshape_7_output_0: 3c2e9f4e
/model/language_model/model/layers.14/self_attn/Expand_output_0: 3e4fac74
/model/language_model/model/layers.11/input_layernorm/Mul_output_0: 3ded12dd
backbone.model.language_model.model.layers.14.self_attn.k_norm.weight_output: 3d094a95
/model/language_model/model/layers.6/self_attn/Slice_4_output_0: 4400f9f3
ONNXTRT_Broadcast_3554_output: 32074ebd
/model/language_model/model/layers.6/self_attn/Neg_output_0: 3ddfdeea
ONNXTRT_Broadcast_4366_output: 32074ebd
/model/language_model/model/layers.11/post_attention_layernorm/Cast_1_output_0: 3deabecc
/model/language_model/model/layers.12/self_attn/q_proj/MatMul_output_0: 3eb0fd1b
/model/language_model/model/layers.6/self_attn/o_proj/MatMul_output_0: 3d126e61
ONNXTRT_Broadcast_5716_output: 3d258285
/model/language_model/model/layers.14/Add_1_output_0: 429e818f
/model/language_model/model/layers.5/self_attn/Unsqueeze_19_output_0: 3cb925a3
/model/language_model/model/layers.10/self_attn/Mul_3_output_0: 3d870b45
/model/language_model/model/layers.9/post_attention_layernorm/Add_output_0: 44aed0a7
/model/language_model/model/layers.8/self_attn/Reshape_1_output_0: 3de64e9d
/model/language_model/model/layers.3/self_attn/Softmax_output: 3a24c993
/model/language_model/model/layers.11/self_attn/Mul_1_output_0: 3d1e9803
/model/language_model/model/layers.2/self_attn/Reshape_2_output_0: 3c334541
/model/language_model/model/layers.14/self_attn/Slice_4_output_0: 4400f9f3
/model/language_model/model/layers.10/self_attn/Unsqueeze_10_output_0: 3f0feba7
/model/language_model/model/layers.10/post_attention_layernorm/Add_output_0: 44aed2b2
/model/language_model/model/layers.9/mlp/act_fn/Sigmoid_output_0: 3c00c993
/model/language_model/model/layers.14/mlp/up_proj/MatMul_output_0: 3de52020
/model/vision_model/vision_model/embeddings/Pad_1_output_0: 3d68fca7
/model/vision_model/vision_model/embeddings/Gather_6_output_0: 3d68fca7
/model/vision_model/vision_model/embeddings/Transpose_10_output_0: 3d68fca7
/model/vision_model/vision_model/embeddings/Reshape_15_output_0: 3d68fca7
/model/vision_model/vision_model/embeddings/Reshape_16_output_0: 3d68fca7
/model/vision_model/vision_model/embeddings/Transpose_11_output_0: 3d68fca7
/model/vision_model/vision_model/embeddings/Reshape_17_output_0: 3d68fca7
/model/vision_model/vision_model/embeddings/Concat_5_output_0: 3d68fca7
/model/language_model/model/layers.15/self_attn/k_proj/MatMul_output_0: 3f21bc78
/model/vision_model/vision_model/embeddings/Gather_7_output_0: 3d68fca7
/model/vision_model/vision_model/embeddings/Split_output_0: 3d5c5d51
/model/vision_model/vision_model/embeddings/Split_output_1: 3d68b08c
/model/vision_model/vision_model/embeddings/Split_output_2: 3d63857e
/model/vision_model/vision_model/embeddings/Split_output_3: 3d764782
/model/vision_model/vision_model/embeddings/Split_output_4: 3d5c6328
/model/vision_model/vision_model/embeddings/Split_output_5: 3d6cace5
/model/vision_model/vision_model/embeddings/Split_output_6: 3d62c87e
/model/vision_model/vision_model/embeddings/Split_output_7: 3d76c5c1
/model/vision_model/vision_model/embeddings/Split_output_8: 3d5c7cde
/model/vision_model/vision_model/embeddings/Split_output_9: 3d5a6e8a
/model/vision_model/vision_model/embeddings/Split_output_10: 3d630a83
/model/vision_model/vision_model/embeddings/Split_output_11: 3d76a69f
/model/vision_model/vision_model/embeddings/Split_output_12: 3d5c9af9
/model/vision_model/vision_model/embeddings/Split_output_13: 3d5ac9b2
/model/vision_model/vision_model/embeddings/Split_output_14: 3d63b6d6
/model/vision_model/vision_model/embeddings/Split_output_15: 3d7651b0
ONNXTRT_Broadcast_4906_output: 3ad7e54b
/model/vision_model/vision_model/embeddings/Squeeze_output_0: 3d5c5d51
ONNXTRT_Broadcast_6230_output: 3b245f2e
/model/vision_model/vision_model/embeddings/Squeeze_1_output_0: 3d68b08c
/model/language_model/model/layers.9/post_attention_layernorm/Constant_3_output_0_output: 3c010a14
/model/vision_model/vision_model/embeddings/Squeeze_2_output_0: 3d63857e
/model/language_model/model/layers.3/mlp/Mul_output_0: 3c0916ec
/model/vision_model/vision_model/embeddings/Squeeze_3_output_0: 3d764782
/model/language_model/model/layers.4/post_attention_layernorm/Constant_3_output_0_output: 3c010a14
/model/vision_model/vision_model/embeddings/Squeeze_4_output_0: 3d5c6328
/model/language_model/model/layers.13/self_attn/q_norm/Constant_3_output_0_output: 3c010a14
/model/vision_model/vision_model/embeddings/Squeeze_5_output_0: 3d6cace5
/model/language_model/model/layers.4/self_attn/q_norm/Div_output_0: 3cb36863
/model/vision_model/vision_model/embeddings/Squeeze_6_output_0: 3d62c87e
/model/language_model/model/layers.11/self_attn/q_norm/Add_output_0: 3e45eec6
/model/vision_model/vision_model/embeddings/Squeeze_7_output_0: 3d76c5c1
/model/language_model/model/layers.9/self_attn/Add_output_0: 3e11eff8
/model/vision_model/vision_model/embeddings/Squeeze_8_output_0: 3d5c7cde
ONNXTRT_Broadcast_3560_output: 3b1d6f3e
/model/vision_model/vision_model/embeddings/Squeeze_9_output_0: 3d5a6e8a
/model/language_model/model/layers.2/input_layernorm/Cast_1_output_0: 3d823dd0
/model/vision_model/vision_model/embeddings/Squeeze_10_output_0: 3d630a83
/model/language_model/model/layers.12/input_layernorm/Mul_1_output_0: 3d9953ab
/model/vision_model/vision_model/embeddings/Squeeze_11_output_0: 3d76a69f
/model/language_model/model/layers.11/self_attn/Slice_4_output_0: 4400f9f3
/model/vision_model/vision_model/embeddings/Squeeze_12_output_0: 3d5c9af9
/model/language_model/model/layers.14/self_attn/k_norm/Sqrt_output_0: 3e33e3b4
/model/vision_model/vision_model/embeddings/Squeeze_13_output_0: 3d5ac9b2
/model/language_model/model/layers.5/self_attn/Add_2_output_0: 448101f7
/model/vision_model/vision_model/embeddings/Squeeze_14_output_0: 3d63b6d6
/model/language_model/model/layers.15/self_attn/q_proj/MatMul_output_0: 3f0973f4
/model/vision_model/vision_model/embeddings/Squeeze_15_output_0: 3d7651b0
/model/vision_model/vision_model/embeddings/Reshape_18_output_0: 3d68b08c
/model/language_model/model/layers.14/self_attn/Slice_output_0: 3e0891a0
onnx::MatMul_9728_output: 3b0e3000
ONNXTRT_Broadcast_4904_output: 3d52b275
/model/language_model/model/layers.7/self_attn/Transpose_2_output_0: 3d04058d
/model/language_model/model/layers.10/self_attn/q_norm/Sqrt_output_0: 3ca33282
/model/language_model/model/layers.12/post_attention_layernorm/Cast_1_output_0: 3d24e6cd
/model/language_model/model/layers.15/self_attn/Mul_output_0: 3d95d491
/model/language_model/model/layers.15/self_attn/Reshape_2_output_0: 3e974f2f
/model/language_model/model/layers.12/input_layernorm/Div_output_0: 3b96c1f1
/model/language_model/model/layers.11/self_attn/Slice_2_output_0: 3e1ab47a
ONNXTRT_Broadcast_5178_output: 32074ebd
/model/language_model/model/layers.11/self_attn/Softmax_output: 3a80c183
/model/language_model/model/layers.2/self_attn/Mul_8_output_0: 3e510b22
/model/language_model/model/layers.13/self_attn/Mul_1_output_0: 3d262963
/model/language_model/model/layers.7/self_attn/v_proj/MatMul_output_0: 3d04058d
/model/language_model/model/layers.7/self_attn/Transpose_1_output_0: 3ef3d484
/model/language_model/model/layers.7/self_attn/Reshape_2_output_0: 3d04058d
/model/language_model/model/layers.6/post_attention_layernorm/Cast_output_0: 40ff6589
/model/language_model/model/layers.7/self_attn/k_norm/Mul_1_output_0: 3ef3d484
backbone.model.language_model.model.layers.7.self_attn.k_norm.weight_output: 3d7c5f3e
/model/language_model/model/layers.7/self_attn/Mul_output_0: 3dd6f810
/model/language_model/model/layers.6/self_attn/Mul_1_output_0: 3d8bd3a9
/model/language_model/model/layers.7/self_attn/k_norm/Cast_1_output_0: 3d5b4687
/model/language_model/model/layers.4/input_layernorm/Sqrt_output_0: 40546813
/model/language_model/model/layers.13/mlp/Mul_output_0: 3d8e8521
backbone.model.language_model.model.layers.13.input_layernorm.weight_output: 3cd3fefe
/model/vision_model/vision_model/embeddings/Slice_5_output_0: 3d68b08c
/model/language_model/model/layers.9/self_attn/MatMul_1_output_0: 3c97f057
/model/language_model/model/layers.15/self_attn/q_norm/Sqrt_output_0: 3e1d5ab9
/model/language_model/model/layers.4/input_layernorm/Pow_output_0: 49fabf9a
/model/language_model/model/layers.2/input_layernorm/Sqrt_output_0: 3cd90518
/model/language_model/model/layers.15/self_attn/Add_output_0: 3dc722ce
ONNXTRT_Broadcast_7007_output: 3ab3d4ea
/model/language_model/model/layers.9/input_layernorm/Mul_output_0: 3e015180
/model/language_model/model/layers.12/post_attention_layernorm/Add_output_0: 44aecd5c
/model/language_model/model/layers.2/input_layernorm/Mul_output_0: 3d823dd0
/model/language_model/model/layers.10/self_attn/Transpose_3_output_0: 3f0feba7
/model/language_model/model/layers.13/input_layernorm/Cast_1_output_0: 3d008495
/model/language_model/model/layers.4/self_attn/k_norm/Mul_1_output_0: 3f68f628
onnx::MatMul_10049_output: 3ad8cebd
/model/language_model/model/layers.11/self_attn/Softmax_output_0: 3a80c183
/model/language_model/model/layers.2/self_attn/Expand_output_0: 3f6cb2f2
/model/language_model/model/layers.11/self_attn/q_norm/Mul_output_0: 3d793a38
ONNXTRT_Broadcast_6477_output: 32074ebd
/model/language_model/model/layers.6/self_attn/Concat_4_output_0: 3f2c1c7f
ONNXTRT_Broadcast_5421_output: 3c810a14
/model/language_model/model/layers.13/self_attn/q_norm/Sqrt_output_0: 3d724589
ONNXTRT_Broadcast_4891_output: 3c010a14
/model/language_model/model/layers.12/input_layernorm/Cast_output_0: 429e0de4
/model/language_model/model/layers.10/post_attention_layernorm/Div_output_0: 3bd6d927
/model/language_model/model/layers.7/self_attn/Cast_5_output_0: 3a7f7efe
ONNXTRT_Broadcast_5945_output: 3c010a14
/model/language_model/model/layers.12/self_attn/k_norm/Mul_output_0: 3d3d1a09
/model/vision_model/vision_model/embeddings/Slice_6_output_0: 3d68b08c
/model/vision_model/vision_model/embeddings/Reshape_19_output_0: 3d68b08c
/model/vision_model/vision_model/embeddings/Reshape_20_output_0: 3d63857e
/model/language_model/model/layers.9/post_attention_layernorm/Pow_output_0: 49fb585b
/model/language_model/model/layers.14/self_attn/q_norm/Div_output_0: 3b5afe5f
/model/language_model/model/layers.10/self_attn/Softmax_output: 3a7468d2
/model/language_model/model/layers.7/self_attn/q_norm/Cast_1_output_0: 3d648304
/model/language_model/model/layers.8/self_attn/Reshape_2_output_0: 3d8cc845
/model/language_model/model/layers.12/post_attention_layernorm/ReduceMean_output_0: 44aecd5c
/model/language_model/model/layers.15/self_attn/Slice_2_output_0: 3e8c2aae
/model/language_model/model/layers.9/self_attn/Slice_2_output_0: 3e9bd24e
/model/language_model/model/layers.4/self_attn/Softmax_output: 3a7f7efe
/model/language_model/model/layers.7/self_attn/k_norm/Sqrt_output_0: 3c614410
/model/language_model/model/layers.7/self_attn/k_norm/Constant_2_output_0_output: 32074ebd
ONNXTRT_Broadcast_6740_output: 3a998c99
ONNXTRT_Broadcast_4909_output: 3c810a14
/model/language_model/model/layers.7/self_attn/Reshape_1_output_0: 3d3e9feb
/model/language_model/model/layers.7/self_attn/q_norm/Add_output_0: 3cd7466a
/model/language_model/model/layers.3/self_attn/Mul_3_output_0: 3d6de001
/model/language_model/model/layers.7/post_attention_layernorm/Constant_2_output_0_output: 32074ebd
/model/language_model/model/layers.7/self_attn/q_norm/ReduceMean_output_0: 3cd74668
/model/language_model/model/layers.7/self_attn/q_norm/Constant_output_0_output: 3c810a14
ONNXTRT_Broadcast_4110_output: 32074ebd
/model/language_model/model/layers.7/self_attn/Transpose_output_0: 3e04c9ec
/model/language_model/model/layers.9/post_attention_layernorm/Constant_2_output_0_output: 32074ebd
ONNXTRT_Broadcast_4105_output: 3b0938d2
/model/language_model/model/layers.12/self_attn/Unsqueeze_19_output_0: 3e54e1d5
/model/language_model/model/layers.14/self_attn/q_norm/ReduceMean_output_0: 3f3163a1
/model/language_model/model/layers.13/post_attention_layernorm/Constant_3_output_0_output: 3c010a14
/model/vision_model/vision_model/embeddings/Slice_7_output_0: 3d63857e
/model/language_model/model/layers.11/self_attn/Expand_1_output_0: 3dc1336e
/model/language_model/model/layers.2/self_attn/k_norm/Constant_3_output_0_output: 3c010a14
ONNXTRT_Broadcast_4078_output: 3c1c68d2
/model/language_model/model/layers.8/Add_output_0: 40ff7f95
/model/language_model/model/layers.11/post_attention_layernorm/Cast_output_0: 429e0ded
onnx::MatMul_9832_output: 3aab7122
/model/language_model/model/layers.10/self_attn/Unsqueeze_19_output_0: 3d9d216c
/model/language_model/model/layers.10/self_attn/q_norm/Constant_3_output_0_output: 3c010a14
/model/language_model/model/layers.13/Add_output_0: 429e66b2
/model/language_model/model/layers.7/self_attn/Mul_2_output_0: 3ef3d482
ONNXTRT_Broadcast_5152_output: 3a9576ad
/model/language_model/model/layers.10/self_attn/Reshape_7_output_0: 3cc72ccc
/model/language_model/model/layers.10/input_layernorm/Add_output_0: 44aed0cb
/model/language_model/model/layers.8/self_attn/Cast_4_output_0: 3a14a953
/model/language_model/model/layers.13/self_attn/Transpose_1_output_0: 3db3f66a
ONNXTRT_Broadcast_5171_output: 3c9142a5
onnx::MatMul_10103_output: 3b3c89e4
onnx::MatMul_10040_output: 3ab1068d
/model/language_model/model/layers.7/self_attn/Reshape_7_output_0: 3c7efdc6
ONNXTRT_Broadcast_5953_output: 3aa58041
ONNXTRT_Broadcast_5963_output: 3b053bf8
/model/language_model/model/layers.1/self_attn/o_proj/MatMul_output_0: 3c80c3b8
ONNXTRT_Broadcast_6222_output: 3c810a14
backbone.model.language_model.model.layers.8.input_layernorm.weight_output: 3c348143
/model/language_model/model/layers.5/self_attn/Constant_54_output_0_output: 3a367841
/model/language_model/model/layers.13/self_attn/k_norm/Div_output_0: 3c0d1a96
/model/vision_model/vision_model/embeddings/Slice_8_output_0: 3d63857e
/model/vision_model/vision_model/embeddings/Reshape_21_output_0: 3d63857e
/model/vision_model/vision_model/embeddings/Reshape_22_output_0: 3d764782
/model/language_model/model/layers.9/self_attn/Neg_output_0: 3dfa3d78
/model/language_model/model/layers.15/self_attn/q_norm/Pow_output_0: 4196b6da
onnx::MatMul_10010_output: 3b245f2e
/model/language_model/model/layers.11/self_attn/Add_output_0: 3d9fe1e7
/model/language_model/model/layers.14/self_attn/Reshape_7_output_0: 3dccc1ae
/model/language_model/model/layers.2/mlp/gate_proj/MatMul_output_0: 3d95715d
/model/language_model/model/layers.10/self_attn/k_norm/Add_output_0: 3daae894
/model/language_model/model/layers.13/post_attention_layernorm/Add_output_0: 44aec77a
/model/language_model/model/layers.5/self_attn/k_norm/Constant_3_output_0_output: 3c010a14
/model/language_model/model/layers.13/self_attn/Reshape_7_output_0: 3d40349a
/model/language_model/model/layers.13/self_attn/q_norm/Constant_2_output_0_output: 32074ebd
ONNXTRT_Broadcast_6746_output: 3c010a14
/model/language_model/model/layers.7/self_attn/Reshape_4_output_0: 3ef3d49c
/model/language_model/model/layers.13/self_attn/Neg_1_output_0: 3da454da
/model/language_model/model/layers.13/self_attn/Reshape_output_0: 3e71b327
/model/language_model/model/layers.11/post_attention_layernorm/Pow_output_0: 49fba46b
/model/language_model/model/layers.15/self_attn/q_norm/Mul_1_output_0: 3dc873a4
/model/language_model/model/layers.8/input_layernorm/Cast_1_output_0: 3e01bf27
/model/language_model/model/layers.14/self_attn/Transpose_2_output_0: 3e681d68
/model/language_model/model/layers.14/self_attn/Slice_2_output_0: 3e2d3700
/model/language_model/model/layers.13/self_attn/k_norm/Constant_3_output_0_output: 3c010a14
/model/language_model/model/layers.10/self_attn/q_norm/Mul_output_0: 3d8283a6
/model/language_model/model/layers.15/input_layernorm/Div_output_0: 3ad306cb
/model/language_model/model/layers.4/self_attn/k_norm/Div_output_0: 3d1428eb
onnx::MatMul_9978_output: 3aa58041
/model/language_model/model/layers.12/self_attn/k_norm/Add_output_0: 3eb85d4b
/model/vision_model/vision_model/embeddings/Slice_9_output_0: 3d764782
/model/language_model/model/layers.13/self_attn/Slice_1_output_0: 3de13708
ONNXTRT_Broadcast_5447_output: 3c010a14
/model/language_model/model/layers.15/self_attn/Reshape_1_output_0: 3f21bc78
/model/language_model/model/layers.2/self_attn/Reshape_output_0: 3cd3da30
/model/language_model/model/layers.10/self_attn/Expand_1_output_0: 3d9d216c
ONNXTRT_Broadcast_5162_output: 3b2c76ee
/model/language_model/model/layers.6/self_attn/Transpose_4_output_0: 3c1e72a8
ONNXTRT_Broadcast_5701_output: 32074ebd
ONNXTRT_Broadcast_6206_output: 3b3db0e2
/model/language_model/model/layers.7/post_attention_layernorm/Mul_output_0: 3e0089e5
backbone.model.language_model.model.layers.10.input_layernorm.weight_output: 3c701285
/model/language_model/model/layers.8/mlp/Mul_output_0: 3c7228ff
/model/language_model/model/layers.2/self_attn/MatMul_1_output_0: 3c190a1e
/model/language_model/model/layers.15/input_layernorm/Mul_output_0: 3e140d7e
/model/language_model/model/layers.14/input_layernorm/Add_output_0: 44aec7d0
/model/language_model/model/layers.6/self_attn/Slice_2_output_0: 3e872e0b
/model/language_model/model/layers.10/self_attn/Add_output_0: 3e1d950b
/model/language_model/model/layers.13/self_attn/k_norm/ReduceMean_output_0: 3ebe90f5
/model/language_model/model/layers.11/self_attn/q_norm/Sqrt_output_0: 3d217ccd
/model/language_model/model/layers.12/self_attn/MatMul_output_0: 3fd3d2e0
/model/language_model/model/layers.14/self_attn/k_norm/Add_output_0: 3f35f99f
/model/language_model/model/layers.13/self_attn/Add_output_0: 3dd7df58
/model/language_model/model/layers.10/input_layernorm/Mul_output_0: 3df74aa8
/model/language_model/model/layers.7/self_attn/MatMul_1_output_0: 3c7efdc6
/model/language_model/model/layers.13/mlp/down_proj/MatMul_output_0: 3e94dc0f
ONNXTRT_Broadcast_6519_output: 3ad8cebd
/model/vision_model/vision_model/embeddings/Slice_10_output_0: 3d764782
/model/vision_model/vision_model/embeddings/Reshape_23_output_0: 3d764782
/model/vision_model/vision_model/embeddings/Reshape_24_output_0: 3d6cace5
onnx::MatMul_10110_output: 3ae51143
ONNXTRT_Broadcast_6748_output: 3c48a6fe
/model/language_model/model/layers.7/input_layernorm/ReduceMean_output_0: 44aed7bf
/model/language_model/model/layers.11/self_attn/Transpose_3_output_0: 3e1ad653
/model/language_model/model/layers.11/self_attn/k_norm/ReduceMean_output_0: 3e1da6f4
backbone.model.language_model.model.layers.7.input_layernorm.weight_output: 3c1c8265
ONNXTRT_Broadcast_4893_output: 3c1c8265
/model/language_model/model/layers.7/input_layernorm/Cast_1_output_0: 3dfd64a1
/model/language_model/model/layers.2/self_attn/Transpose_4_output_0: 3c190a1e
/model/language_model/model/layers.7/input_layernorm/Mul_output_0: 3dfd64a1
/model/language_model/model/layers.7/input_layernorm/Constant_3_output_0_output: 3c010a14
/model/language_model/model/layers.13/input_layernorm/Mul_1_output_0: 3d9d3394
/model/language_model/model/layers.14/self_attn/Mul_2_output_0: 3e2d32d4
/model/language_model/model/layers.7/input_layernorm/Add_output_0: 44aed7bf
/model/language_model/model/layers.6/mlp/down_proj/MatMul_output_0: 3d4b2e6d
ONNXTRT_Broadcast_4885_output: 3a84a1c4
/model/language_model/model/layers.7/input_layernorm/Constant_output_0_output: 3c810a14
/model/language_model/model/layers.6/mlp/Mul_output_0: 3c80c524
/model/language_model/model/layers.6/mlp/up_proj/MatMul_output_0: 3d1576c2
ONNXTRT_Broadcast_4883_output: 3ac3c245
/model/language_model/model/layers.7/input_layernorm/Constant_2_output_0_output: 32074ebd
onnx::MatMul_9853_output: 3ac3c245
/model/language_model/model/layers.6/mlp/act_fn/Sigmoid_output_0: 3bfd5386
/model/language_model/model/layers.6/mlp/gate_proj/MatMul_output_0: 3d4d6b5d
ONNXTRT_Broadcast_4889_output: 32074ebd
ONNXTRT_Broadcast_4881_output: 3aec1c38
/model/vision_model/vision_model/embeddings/Slice_11_output_0: 3d6cace5
/model/language_model/model/layers.4/self_attn/Add_2_output_0: 44810249
ONNXTRT_Broadcast_4628_output: 3b032081
/model/language_model/model/layers.11/self_attn/MatMul_output_0: 405b2155
/model/language_model/model/layers.10/Add_1_output_0: 40ffafeb
/model/language_model/model/layers.3/self_attn/k_proj/MatMul_output_0: 3d074a7f
/model/language_model/model/layers.4/self_attn/Mul_1_output_0: 3d0b1626
/model/language_model/model/layers.8/self_attn/q_norm/Constant_2_output_0_output: 32074ebd
/model/language_model/model/layers.8/input_layernorm/Cast_output_0: 40ff734f
/model/language_model/model/layers.3/input_layernorm/Mul_output_0: 3dcf26ad
ONNXTRT_Broadcast_6485_output: 3aeafcda
/model/language_model/model/layers.6/input_layernorm/ReduceMean_output_0: 44aed4ea
/model/language_model/model/layers.9/self_attn/MatMul_output_0: 3fc9d197
/model/language_model/model/layers.9/input_layernorm/Sqrt_output_0: 40546a12
backbone.model.language_model.model.layers.10.post_attention_layernorm.weight_output: 3c0b2336
/model/language_model/model/layers.9/self_attn/Neg_1_output_0: 3e992e04
ONNXTRT_Broadcast_5148_output: 3b00b163
/model/language_model/model/layers.1/self_attn/Softmax_output: 3a7f7efe
ONNXTRT_Broadcast_4097_output: 3c810a14
ONNXTRT_Broadcast_6780_output: 32074ebd
/model/language_model/model/layers.13/self_attn/Concat_3_output_0: 3dc473ae
ONNXTRT_Broadcast_6513_output: 32074ebd
ONNXTRT_Broadcast_5955_output: 3c810a14
/model/language_model/model/layers.14/self_attn/q_norm/Pow_output_0: 40b64e13
/model/language_model/model/layers.6/self_attn/Mul_2_output_0: 3eeaeb83
/model/language_model/model/layers.15/self_attn/k_norm/Constant_2_output_0_output: 32074ebd
/model/language_model/model/layers.6/self_attn/Add_output_0: 3ddd5209
/model/vision_model/vision_model/embeddings/Slice_12_output_0: 3d6cace5
/model/vision_model/vision_model/embeddings/Reshape_25_output_0: 3d6cace5
/model/vision_model/vision_model/embeddings/Reshape_26_output_0: 3d62c87e
/model/language_model/model/layers.8/self_attn/k_norm/Mul_1_output_0: 3e6bdfa5
/model/language_model/model/layers.12/post_attention_layernorm/Div_output_0: 3b5b1e96
ONNXTRT_Broadcast_4875_output: 32074ebd
/model/language_model/model/layers.6/post_attention_layernorm/Constant_2_output_0_output: 32074ebd
/model/language_model/model/layers.9/self_attn/Reshape_output_0: 3de848b0
backbone.model.language_model.model.layers.6.post_attention_layernorm.weight_output: 3bfa1871
ONNXTRT_Broadcast_4879_output: 3bfa1871
ONNXTRT_Broadcast_5712_output: 32074ebd
/model/language_model/model/layers.11/self_attn/o_proj/MatMul_output_0: 3d989961
/model/language_model/model/layers.6/post_attention_layernorm/Cast_1_output_0: 3dfdff3e
/model/language_model/model/layers.6/post_attention_layernorm/Mul_output_0: 3dfdff3e
/model/language_model/model/layers.6/post_attention_layernorm/Mul_1_output_0: 3d2dd5c7
onnx::MatMul_9700_output: 3b1d6f3e
/model/language_model/model/layers.6/post_attention_layernorm/Div_output_0: 3c2e09a2
/model/language_model/model/layers.6/post_attention_layernorm/Pow_output_0: 49fae6de
ONNXTRT_Broadcast_5694_output: 3c701285
/model/language_model/model/layers.6/post_attention_layernorm/ReduceMean_output_0: 44aed7b3
ONNXTRT_Broadcast_4873_output: 3c810a14
/model/language_model/model/layers.6/post_attention_layernorm/Constant_output_0_output: 3c810a14
/model/language_model/model/layers.6/Add_output_0: 40ff6589
onnx::MatMul_9762_output: 3af33d7b
ONNXTRT_Broadcast_4871_output: 3a8f7020
onnx::MatMul_9851_output: 3a8f7020
ONNXTRT_Broadcast_3569_output: 3d204a85
/model/language_model/model/layers.6/post_attention_layernorm/Sqrt_output_0: 40546c0f
/model/language_model/model/layers.6/self_attn/Reshape_7_output_0: 3c1e72a8
/model/vision_model/vision_model/embeddings/Slice_13_output_0: 3d62c87e
/model/language_model/model/layers.6/self_attn/Slice_1_output_0: 3ddfdeea
onnx::MatMul_9800_output: 3aae98b1
ONNXTRT_Broadcast_5415_output: 3ad83224
/model/language_model/model/layers.6/self_attn/k_norm/Constant_2_output_0_output: 32074ebd
/model/language_model/model/layers.9/self_attn/q_norm/Pow_output_0: 3f5021b8
/model/language_model/model/layers.7/self_attn/k_norm/Cast_output_0: 3d3e9feb
ONNXTRT_Broadcast_5451_output: 3aab8e1c
/model/language_model/model/layers.8/input_layernorm/Mul_output_0: 3e01bf27
/model/language_model/model/layers.9/self_attn/k_norm/Mul_1_output_0: 3e9ea5bc
/model/language_model/model/layers.11/self_attn/q_proj/MatMul_output_0: 3e5419ec
/model/language_model/model/layers.3/self_attn/q_norm/Div_output_0: 3c95feed
/model/language_model/model/layers.8/self_attn/q_norm/Mul_1_output_0: 3e1d6b1f
/model/language_model/model/layers.9/self_attn/Transpose_1_output_0: 3e9ea5bc
ONNXTRT_Broadcast_5409_output: 32074ebd
backbone.model.language_model.model.layers.9.self_attn.k_norm.weight_output: 3d953b16
/model/language_model/model/layers.14/self_attn/k_norm/ReduceMean_output_0: 3f35f99f
ONNXTRT_Broadcast_5977_output: 3c810a14
ONNXTRT_Broadcast_7034_output: 3c810a14
/model/language_model/model/layers.14/self_attn/v_proj/MatMul_output_0: 3e681d68
/model/language_model/model/layers.9/self_attn/q_norm/Constant_output_0_output: 3c810a14
/model/language_model/model/layers.9/self_attn/Transpose_output_0: 3e165bfa
/model/language_model/model/layers.14/mlp/down_proj/MatMul_output_0: 3fa4ecb8
/model/language_model/model/layers.10/input_layernorm/Constant_output_0_output: 3c810a14
/model/language_model/model/layers.7/self_attn/Mul_3_output_0: 3d5ed0b6
ONNXTRT_Broadcast_5363_output: 3a367841
/model/language_model/model/layers.15/self_attn/k_norm/Constant_3_output_0_output: 3c010a14
/model/vision_model/vision_model/embeddings/Slice_14_output_0: 3d62c87e
/model/vision_model/vision_model/embeddings/Reshape_27_output_0: 3d62c87e
/model/vision_model/vision_model/embeddings/Reshape_28_output_0: 3d76c5c1
/model/language_model/model/layers.13/self_attn/Expand_output_0: 3db3f66a
ONNXTRT_Broadcast_3552_output: 3c810a14
ONNXTRT_Broadcast_4887_output: 3c810a14
/model/language_model/model/layers.2/post_attention_layernorm/Constant_2_output_0_output: 32074ebd
/model/language_model/model/layers.7/mlp/gate_proj/MatMul_output_0: 3d9022a8
/model/language_model/model/layers.6/self_attn/MatMul_1_output_0: 3c1e72a8
/model/language_model/model/layers.13/self_attn/Reshape_6_output_0: 3e407804
/model/language_model/model/layers.10/self_attn/Cast_4_output_0: 3a7468d2
/model/language_model/model/layers.10/mlp/act_fn/Sigmoid_output_0: 3c010a14
/model/language_model/model/layers.6/self_attn/Cast_4_output_0: 3a7c78f2
/model/language_model/model/layers.4/self_attn/k_proj/MatMul_output_0: 3d01c692
onnx::MatMul_10069_output: 3af76912
/model/language_model/model/layers.7/Add_1_output_0: 40ff734f
/model/language_model/model/layers.6/self_attn/Softmax_output: 3a7c78f2
/model/language_model/model/layers.12/self_attn/Mul_2_output_0: 3e8156a1
ONNXTRT_Broadcast_5705_output: 3d8818a1
/model/language_model/model/layers.4/self_attn/q_norm/Cast_1_output_0: 3d557519
/model/language_model/model/layers.8/self_attn/Mul_1_output_0: 3ccebc3a
/model/language_model/model/layers.15/input_layernorm/Sqrt_output_0: 3ef6c4c5
/model/language_model/model/layers.6/self_attn/k_norm/Cast_1_output_0: 3d3ee0b7
/model/language_model/model/layers.1/self_attn/Unsqueeze_10_output_0: 3f784da5
ONNXTRT_Broadcast_6511_output: 3c810a14
/model/language_model/model/layers.7/self_attn/k_norm/Constant_output_0_output: 3c810a14
/model/language_model/model/layers.6/self_attn/v_proj/MatMul_output_0: 3ca09e10
/model/language_model/model/layers.6/self_attn/Add_2_output_0: 448101d3
/model/language_model/model/layers.6/self_attn/Transpose_2_output_0: 3ca09e10
/model/vision_model/vision_model/embeddings/Slice_15_output_0: 3d76c5c1
/model/language_model/model/layers.11/self_attn/q_norm/ReduceMean_output_0: 3e3fc003
ONNXTRT_Broadcast_5144_output: 3c010a14
backbone.model.language_model.model.layers.12.post_attention_layernorm.weight_output: 3c184214
/model/language_model/model/layers.6/self_attn/MatMul_output_0: 4040207b
ONNXTRT_Broadcast_7019_output: 3aef3f3e
/model/language_model/model/layers.1/self_attn/MatMul_output_0: 40203f5b
ONNXTRT_Broadcast_3574_output: 3c810a14
/model/language_model/model/layers.1/self_attn/MatMul_1_output_0: 3bc8cfb1
/model/language_model/model/layers.11/post_attention_layernorm/Constant_output_0_output: 3c810a14
/model/language_model/model/layers.3/self_attn/Reshape_1_output_0: 3d074a7f
/model/language_model/model/layers.3/self_attn/MatMul_1_output_0: 3c068415
/model/language_model/model/layers.9/self_attn/k_norm/Mul_output_0: 3d432d15
/model/language_model/model/layers.10/self_attn/Transpose_1_output_0: 3f0fea9f
/model/language_model/model/layers.6/self_attn/Slice_output_0: 3ddd8501
ONNXTRT_Broadcast_4639_output: 3b45a66d
/model/language_model/model/layers.9/self_attn/Concat_3_output_0: 3e165bfa
/model/language_model/model/layers.7/self_attn/k_norm/Div_output_0: 3ccc5a57
/model/language_model/model/layers.6/self_attn/k_norm/Cast_output_0: 3d07b641
/model/language_model/model/layers.8/self_attn/q_norm/Pow_output_0: 3f28994c
ONNXTRT_Broadcast_5972_output: 3cb78387
/model/language_model/model/layers.12/post_attention_layernorm/Mul_1_output_0: 3cf0e105
/model/language_model/model/layers.7/self_attn/Transpose_4_output_0: 3c7efdc6
ONNXTRT_Broadcast_6769_output: 32074ebd
/model/language_model/model/layers.11/post_attention_layernorm/Constant_3_output_0_output: 3c010a14
ONNXTRT_Broadcast_5703_output: 3c010a14
/model/language_model/model/layers.8/input_layernorm/Mul_1_output_0: 3d1a5a46
/model/vision_model/vision_model/embeddings/Slice_16_output_0: 3d76c5c1
/model/vision_model/vision_model/embeddings/Reshape_29_output_0: 3d76c5c1
/model/vision_model/vision_model/embeddings/Reshape_30_output_0: 3d5a6e8a
/model/language_model/model/layers.6/input_layernorm/Sqrt_output_0: 40546a5e
/model/language_model/model/layers.10/post_attention_layernorm/Constant_output_0_output: 3c810a14
/model/language_model/model/layers.13/self_attn/Transpose_2_output_0: 3e407804
ONNXTRT_Broadcast_4829_output: 3a367841
/model/language_model/model/layers.14/self_attn/k_norm/Constant_output_0_output: 3c810a14
onnx::MatMul_9975_output: 3b1158b1
/model/language_model/model/layers.13/self_attn/Cast_4_output_0: 3a776ede
/model/language_model/model/layers.12/input_layernorm/Constant_3_output_0_output: 3c010a14
ONNXTRT_Broadcast_4295_output: 3a367841
ONNXTRT_Broadcast_7029_output: 3d40d306
/model/language_model/model/layers.3/self_attn/Mul_1_output_0: 3d80f5cf
/model/language_model/model/layers.1/post_attention_layernorm/Constant_2_output_0_output: 32074ebd
/model/language_model/model/layers.11/self_attn/Concat_3_output_0: 3dadf90e
/model/language_model/model/layers.12/self_attn/Add_2_output_0: 4480fecb
/model/language_model/model/layers.2/self_attn/k_norm/ReduceMean_output_0: 3b2a3996
/model/language_model/model/layers.11/input_layernorm/Cast_1_output_0: 3ded12dd
/model/language_model/model/layers.7/self_attn/Unsqueeze_19_output_0: 3d04058d
/model/language_model/model/layers.9/self_attn/Add_2_output_0: 4480fff7
/model/language_model/model/layers.13/input_layernorm/Constant_3_output_0_output: 3c010a14
/model/language_model/model/layers.10/self_attn/Mul_1_output_0: 3d87b80c
ONNXTRT_Broadcast_5961_output: 3c9c8306
onnx::MatMul_9914_output: 3ad83224
/model/language_model/model/layers.12/self_attn/k_norm/Mul_1_output_0: 3e9b2fdf
ONNXTRT_Broadcast_6698_output: 3a367841
/model/language_model/model/layers.12/mlp/act_fn/Sigmoid_output_0: 3c00c993
/model/language_model/model/layers.14/self_attn/Reshape_6_output_0: 3e681d68
/model/vision_model/vision_model/embeddings/Slice_17_output_0: 3d5a6e8a
ONNXTRT_Broadcast_5979_output: 32074ebd
ONNXTRT_Broadcast_4101_output: 3c010a14
/model/language_model/model/layers.9/self_attn/q_norm/Mul_1_output_0: 3e165bfa
/model/language_model/model/layers.11/self_attn/Slice_3_output_0: 3e1ac842
/model/language_model/model/layers.2/input_layernorm/Cast_output_0: 3e56e37e
/model/language_model/model/layers.15/self_attn/q_norm/Constant_output_0_output: 3c810a14
/model/language_model/model/layers.1/self_attn/Slice_2_output_0: 3f784d53
/model/language_model/model/layers.8/self_attn/Neg_1_output_0: 3dc71f38
/model/language_model/model/layers.8/self_attn/k_norm/Cast_output_0: 3de64e9d
/model/language_model/model/layers.9/input_layernorm/ReduceMean_output_0: 44aed46d
/model/language_model/model/layers.14/self_attn/k_norm/Pow_output_0: 41146d2a
ONNXTRT_Broadcast_3836_output: 3d184a95
/model/language_model/model/layers.10/post_attention_layernorm/Mul_1_output_0: 3d54f488
ONNXTRT_Broadcast_5688_output: 3c810a14
/model/language_model/model/layers.9/self_attn/q_norm/Cast_output_0: 3de848b0
/model/language_model/model/layers.8/self_attn/Slice_output_0: 3da8709d
/model/language_model/model/layers.14/self_attn/Neg_output_0: 3de41e48
/model/language_model/model/layers.4/self_attn/q_norm/Sqrt_output_0: 3c30413b
ONNXTRT_Broadcast_6248_output: 3c010a14
/model/language_model/model/layers.4/self_attn/q_norm/Constant_output_0_output: 3c810a14
/model/language_model/model/layers.12/post_attention_layernorm/Pow_output_0: 49fb2441
/model/language_model/model/layers.9/self_attn/Concat_4_output_0: 3e9ea5bc
/model/language_model/model/layers.3/self_attn/Slice_output_0: 3e016505
/model/language_model/model/layers.14/self_attn/k_norm/Constant_2_output_0_output: 32074ebd
ONNXTRT_Broadcast_3567_output: 3c010a14
/model/language_model/model/layers.4/self_attn/Transpose_1_output_0: 3f68f628
/model/vision_model/vision_model/embeddings/Slice_18_output_0: 3d5a6e8a
/model/vision_model/vision_model/embeddings/Reshape_31_output_0: 3d5a6e8a
/model/vision_model/vision_model/embeddings/Reshape_32_output_0: 3d630a83
/model/language_model/model/layers.4/self_attn/Mul_output_0: 3e053289
/model/language_model/model/layers.10/self_attn/Transpose_4_output_0: 3cc72ccc
/model/language_model/model/layers.4/self_attn/q_norm/Constant_2_output_0_output: 32074ebd
ONNXTRT_Broadcast_4076_output: 3c010a14
backbone.model.language_model.model.layers.2.post_attention_layernorm.weight_output: 3bb3cf9f
/model/language_model/model/layers.1/self_attn/Cast_5_output_0: 3a7f7efe
/model/language_model/model/layers.1/self_attn/Transpose_4_output_0: 3bc8cfb1
backbone.model.language_model.model.layers.9.input_layernorm.weight_output: 3c7513e8
/model/language_model/model/layers.5/self_attn/q_norm/Add_output_0: 3c920e7a
backbone.model.language_model.model.layers.11.self_attn.k_norm.weight_output: 3d2962e6
/model/language_model/model/layers.5/self_attn/k_norm/Constant_output_0_output: 3c810a14
/model/language_model/model/layers.8/self_attn/Mul_output_0: 3e1bb774
backbone.model.language_model.model.layers.8.self_attn.k_norm.weight_output: 3cf10953
onnx::MatMul_10070_output: 3b194f5f
/model/language_model/model/layers.10/mlp/up_proj/MatMul_output_0: 3d150fd1
onnx::MatMul_10080_output: 3acdbfaf
/model/language_model/model/layers.6/self_attn/Expand_1_output_0: 3ca09e10
/model/language_model/model/layers.14/input_layernorm/Cast_output_0: 429e669d
/model/language_model/model/layers.6/post_attention_layernorm/Constant_3_output_0_output: 3c010a14
/model/language_model/model/layers.4/self_attn/Transpose_output_0: 3e050bfe
/model/language_model/model/layers.9/self_attn/k_norm/Cast_1_output_0: 3d432d15
/model/language_model/model/layers.8/input_layernorm/Constant_output_0_output: 3c810a14
/model/language_model/model/layers.8/self_attn/q_norm/Div_output_0: 3c836a8f
ONNXTRT_Broadcast_4606_output: 3c810a14
/model/language_model/model/layers.9/self_attn/k_norm/Sqrt_output_0: 3c8fd4b7
/model/language_model/model/layers.11/mlp/up_proj/MatMul_output_0: 3d48d6e7
/model/vision_model/vision_model/embeddings/Slice_19_output_0: 3d630a83
/model/language_model/model/layers.6/self_attn/Mul_output_0: 3dc16501
/model/language_model/model/layers.11/self_attn/Unsqueeze_10_output_0: 3e1ad653
onnx::MatMul_9987_output: 3ac4bf1e
/model/language_model/model/layers.6/input_layernorm/Constant_3_output_0_output: 3c010a14
/model/language_model/model/layers.1/post_attention_layernorm/ReduceMean_output_0: 3d376278
/model/language_model/model/layers.13/input_layernorm/Constant_2_output_0_output: 32074ebd
/model/language_model/model/layers.6/self_attn/Reshape_2_output_0: 3ca09e10
ONNXTRT_Broadcast_4650_output: 3aab7122
/model/language_model/model/layers.13/self_attn/MatMul_1_output_0: 3d40349a
ONNXTRT_Broadcast_5154_output: 3c810a14
/model/language_model/model/layers.6/self_attn/Transpose_1_output_0: 3f2c1c7f
/model/language_model/model/layers.4/self_attn/Reshape_2_output_0: 3cbadcd9
ONNXTRT_Broadcast_4648_output: 3d8e40c2
/model/language_model/model/layers.4/self_attn/q_norm/Add_output_0: 3c4f68a9
/model/language_model/model/layers.6/self_attn/k_norm/Mul_output_0: 3d3ee0b7
onnx::MatMul_10100_output: 3ab2c4ca
ONNXTRT_Broadcast_4103_output: 3cae8204
/model/language_model/model/layers.6/input_layernorm/Mul_output_0: 3dfb3d78
/model/language_model/model/layers.12/self_attn/Transpose_4_output_0: 3cfb0776
/model/language_model/model/layers.7/self_attn/Expand_1_output_0: 3d04058d
/model/language_model/model/layers.13/self_attn/MatMul_output_0: 3fe5e315
ONNXTRT_Broadcast_4114_output: 3d8d4204
onnx::MatMul_9913_output: 3acdfbf8
ONNXTRT_Broadcast_7027_output: 3c010a14
/model/language_model/model/layers.4/self_attn/k_norm/Sqrt_output_0: 3c25832b
/model/language_model/model/layers.4/self_attn/q_norm/Mul_output_0: 3d557519
/model/vision_model/vision_model/embeddings/Slice_20_output_0: 3d630a83
/model/vision_model/vision_model/embeddings/Reshape_33_output_0: 3d630a83
/model/vision_model/vision_model/embeddings/Reshape_34_output_0: 3d76a69f
/model/language_model/model/layers.10/post_attention_layernorm/ReduceMean_output_0: 44aed2b2
/model/language_model/model/layers.8/self_attn/Cast_5_output_0: 3a14a953
ONNXTRT_Broadcast_4112_output: 3c010a14
/model/language_model/model/layers.14/mlp/act_fn/Sigmoid_output_0: 3c010a14
/model/language_model/model/layers.3/self_attn/q_norm/Cast_1_output_0: 3d7d0422
/model/language_model/model/layers.1/mlp/Mul_output_0: 3d1bc1ef
/model/language_model/model/layers.14/self_attn/q_norm/Mul_output_0: 3d4e9853
/model/language_model/model/layers.7/self_attn/Expand_output_0: 3ef3d49c
ONNXTRT_Broadcast_4913_output: 3c010a14
/model/language_model/model/layers.14/self_attn/Mul_8_output_0: 3e1239ef
/model/language_model/model/layers.10/self_attn/k_norm/ReduceMean_output_0: 3daae894
/model/language_model/model/layers.2/input_layernorm/ReduceMean_output_0: 3db67e47
/model/language_model/model/layers.9/self_attn/Expand_1_output_0: 3d323dd6
backbone.model.language_model.model.layers.14.input_layernorm.weight_output: 3d165c38
/model/language_model/model/layers.9/post_attention_layernorm/Mul_1_output_0: 3d6e3ff2
/model/language_model/model/layers.11/input_layernorm/ReduceMean_output_0: 44aed32a
/model/language_model/model/layers.11/self_attn/Mul_output_0: 3d9bf74e
/model/language_model/model/layers.4/self_attn/Concat_4_output_0: 3f68f628
ONNXTRT_Broadcast_6218_output: 3a96764d
/model/language_model/model/layers.13/post_attention_layernorm/ReduceMean_output_0: 44aec77a
ONNXTRT_Broadcast_5707_output: 3ad9d8d2
ONNXTRT_Broadcast_4347_output: 3ad7e7d0
backbone.model.language_model.model.layers.15.self_attn.k_norm.weight_output: 3e306bc8
/model/language_model/model/layers.2/post_attention_layernorm/Add_output_0: 3d47ec9f
/model/language_model/model/layers.11/self_attn/k_norm/Cast_output_0: 3e341aac
ONNXTRT_Broadcast_3834_output: 3c010a14
/model/vision_model/vision_model/embeddings/Slice_21_output_0: 3d76a69f
/model/language_model/model/layers.13/self_attn/Slice_2_output_0: 3db3be83
/model/language_model/model/layers.6/self_attn/k_norm/Add_output_0: 3c31f188
ONNXTRT_Broadcast_4637_output: 3d62d3b7
/model/language_model/model/layers.14/self_attn/Mul_3_output_0: 3d2c0600
ONNXTRT_Broadcast_5682_output: 3b195851
ONNXTRT_Broadcast_6483_output: 3ad7e7d0
/model/language_model/model/layers.11/self_attn/q_norm/Pow_output_0: 3fdeebe7
/model/language_model/model/layers.7/self_attn/k_norm/Constant_3_output_0_output: 3c010a14
/model/language_model/model/layers.6/self_attn/k_norm/Sqrt_output_0: 3c108dcc
/model/language_model/model/layers.15/input_layernorm/Add_output_0: 44aecd3c
ONNXTRT_Broadcast_4644_output: 32074ebd
/model/language_model/model/layers.12/self_attn/MatMul_1_output_0: 3cfb0776
/model/language_model/model/layers.6/self_attn/k_norm/Pow_output_0: 3d3f170e
/model/language_model/model/layers.6/self_attn/Reshape_1_output_0: 3d07b641
backbone.model.language_model.model.layers.6.self_attn.q_norm.weight_output: 3d62d3b7
/model/language_model/model/layers.15/input_layernorm/Cast_1_output_0: 3e140d7e
backbone.model.language_model.model.layers.15.self_attn.q_norm.weight_output: 3cae70b1
/model/language_model/model/layers.8/post_attention_layernorm/Cast_1_output_0: 3dff0383
/model/language_model/model/layers.2/self_attn/Mul_3_output_0: 3da5bc7f
/model/language_model/model/layers.6/self_attn/q_norm/Mul_output_0: 3d789504
/model/language_model/model/layers.6/self_attn/q_norm/Mul_1_output_0: 3ddfdb1f
/model/language_model/model/layers.15/self_attn/Neg_output_0: 3da0592a
/model/language_model/model/layers.6/self_attn/q_norm/Div_output_0: 3d66f8fe
ONNXTRT_Broadcast_4635_output: 3c010a14
onnx::MatMul_9831_output: 3b45a66d
/model/language_model/model/layers.6/self_attn/q_norm/Sqrt_output_0: 3c61be07
/model/vision_model/vision_model/embeddings/Slice_22_output_0: 3d76a69f
/model/vision_model/vision_model/embeddings/Reshape_35_output_0: 3d76a69f
/model/vision_model/vision_model/embeddings/Reshape_36_output_0: 3d5ac9b2
/model/language_model/model/layers.10/post_attention_layernorm/Sqrt_output_0: 40546905
/model/language_model/model/layers.1/self_attn/Softmax_output_0: 3a7f7efe
/model/language_model/model/layers.6/self_attn/Unsqueeze_19_output_0: 3ca09e10
/model/language_model/model/layers.3/self_attn/Unsqueeze_10_output_0: 3f3dba3d
ONNXTRT_Broadcast_4116_output: 3ae4f5dc
/model/language_model/model/layers.2/post_attention_layernorm/Constant_3_output_0_output: 3c010a14
/model/language_model/model/layers.6/self_attn/k_norm/Div_output_0: 3d2b0fc7
ONNXTRT_Broadcast_4900_output: 32074ebd
/model/language_model/model/layers.15/self_attn/q_norm/Constant_3_output_0_output: 3c010a14
onnx::MatMul_9821_output: 3af76953
/model/language_model/model/layers.7/self_attn/q_norm/Mul_output_0: 3d648304
/model/language_model/model/layers.11/self_attn/k_norm/Constant_3_output_0_output: 3c010a14
/model/language_model/model/layers.10/self_attn/Expand_output_0: 3f0feba7
ONNXTRT_Broadcast_4090_output: 3c010a14
/model/language_model/model/layers.2/self_attn/q_norm/Mul_1_output_0: 3e14fbb5
/model/language_model/model/layers.5/post_attention_layernorm/Cast_1_output_0: 3dfd5a5b
onnx::MatMul_9976_output: 3b003dbb
/model/language_model/model/layers.14/self_attn/k_proj/MatMul_output_0: 3ed3dc33
/model/language_model/model/layers.3/self_attn/k_norm/Cast_output_0: 3d074a7f
/model/language_model/model/layers.14/self_attn/Reshape_1_output_0: 3ed3dc33
ONNXTRT_Broadcast_6487_output: 3ab1068d
/model/language_model/model/layers.12/self_attn/v_proj/MatMul_output_0: 3e54e1d5
/model/language_model/model/layers.8/mlp/act_fn/Mul_output_0: 3c3cab81
/model/language_model/model/layers.14/self_attn/k_norm/Cast_1_output_0: 3d413962
/model/language_model/model/layers.3/self_attn/Expand_output_0: 3f3dba3d
/model/language_model/model/layers.8/self_attn/Mul_2_output_0: 3e6bdecd
/model/vision_model/vision_model/embeddings/Slice_23_output_0: 3d5ac9b2
/model/language_model/model/layers.1/self_attn/Mul_8_output_0: 3e629997
/model/language_model/model/layers.6/self_attn/q_norm/Constant_2_output_0_output: 32074ebd
/model/language_model/model/layers.6/self_attn/Reshape_output_0: 3d680110
onnx::MatMul_9696_output: 3af30a34
/model/language_model/model/layers.6/self_attn/q_norm/Pow_output_0: 3dfceb2d
ONNXTRT_Broadcast_4631_output: 3c810a14
/model/language_model/model/layers.6/self_attn/q_norm/ReduceMean_output_0: 3cbed021
/model/language_model/model/layers.9/self_attn/k_norm/Constant_3_output_0_output: 3c010a14
ONNXTRT_Broadcast_7047_output: 32074ebd
/model/language_model/model/layers.2/input_layernorm/Pow_output_0: 3fc97a6f
/model/language_model/model/layers.2/post_attention_layernorm/Cast_1_output_0: 3d91954b
ONNXTRT_Broadcast_6489_output: 3c810a14
/model/language_model/model/layers.8/input_layernorm/ReduceMean_output_0: 44aed4bb
/model/language_model/model/layers.10/input_layernorm/Mul_1_output_0: 3dd41b5c
/model/language_model/model/layers.9/self_attn/Expand_output_0: 3e992ea2
/model/language_model/model/layers.2/self_attn/Mul_2_output_0: 3f6cb688
/model/language_model/model/layers.1/mlp/down_proj/MatMul_output_0: 3d6066d0
/model/language_model/model/layers.8/input_layernorm/Constant_3_output_0_output: 3c010a14
/model/language_model/model/layers.11/self_attn/Transpose_2_output_0: 3dc1336e
/model/language_model/model/layers.6/self_attn/Mul_3_output_0: 3d929ad0
/model/language_model/model/layers.6/self_attn/q_norm/Constant_output_0_output: 3c810a14
/model/language_model/model/layers.10/self_attn/k_proj/MatMul_output_0: 3dfee05a
ONNXTRT_Broadcast_3536_output: 3af30a34
/model/language_model/model/layers.5/self_attn/Slice_output_0: 3e15f448
/model/language_model/model/layers.14/input_layernorm/Cast_1_output_0: 3e1766e9
onnx::MatMul_9759_output: 3ad7e9d4
/model/vision_model/vision_model/embeddings/Slice_24_output_0: 3d5ac9b2
/model/vision_model/vision_model/embeddings/Reshape_37_output_0: 3d5ac9b2
/model/vision_model/vision_model/embeddings/Reshape_38_output_0: 3d63b6d6
ONNXTRT_Broadcast_3830_output: 3c810a14
backbone.model.language_model.model.layers.3.self_attn.k_norm.weight_output: 3d30d428
backbone.model.language_model.model.layers.15.input_layernorm.weight_output: 3d40d306
backbone.model.language_model.model.layers.5.post_attention_layernorm.weight_output: 3bfa0387
/model/language_model/model/layers.4/input_layernorm/Mul_1_output_0: 3d1cef15
/model/language_model/model/layers.11/self_attn/Add_1_output_0: 3e1ad653
/model/language_model/model/layers.10/self_attn/q_norm/Constant_output_0_output: 3c810a14
/model/language_model/model/layers.12/self_attn/q_norm/Cast_output_0: 3eb0fd1b
/model/language_model/model/layers.7/self_attn/q_proj/MatMul_output_0: 3da1b8fd
/model/language_model/model/layers.8/post_attention_layernorm/Constant_2_output_0_output: 32074ebd
/model/language_model/model/layers.8/self_attn/k_norm/Div_output_0: 3cd1b757
ONNXTRT_Broadcast_5419_output: 3a887020
/model/language_model/model/layers.14/input_layernorm/ReduceMean_output_0: 44aec7d0
/model/language_model/model/layers.14/self_attn/Add_1_output_0: 3e4fac74
ONNXTRT_Broadcast_3811_output: 3bb3cf9f
/model/language_model/model/layers.7/self_attn/Concat_3_output_0: 3e04c9ec
ONNXTRT_Broadcast_5440_output: 3b4cbcda
ONNXTRT_Broadcast_6475_output: 3c810a14
backbone.model.language_model.model.layers.13.self_attn.k_norm.weight_output: 3d193bf8
/model/language_model/model/layers.11/self_attn/Slice_1_output_0: 3d948ddc
/model/language_model/model/layers.10/input_layernorm/ReduceMean_output_0: 44aed0cb
ONNXTRT_Broadcast_5947_output: 3c0b2336
/model/language_model/model/layers.10/self_attn/q_norm/ReduceMean_output_0: 3d605bcb
onnx::MatMul_9885_output: 3a9576ad
ONNXTRT_Broadcast_5690_output: 32074ebd
/model/language_model/model/layers.11/self_attn/k_norm/Add_output_0: 3e1da6f4
/model/vision_model/vision_model/embeddings/Slice_25_output_0: 3d63b6d6
/model/language_model/model/layers.12/self_attn/o_proj/MatMul_output_0: 3e62ca36
/model/language_model/model/layers.1/self_attn/Add_1_output_0: 3f784da5
/model/language_model/model/layers.10/input_layernorm/Constant_3_output_0_output: 3c010a14
/model/language_model/model/layers.3/self_attn/Transpose_2_output_0: 3cbdf29d
/model/language_model/model/layers.7/self_attn/Slice_4_output_0: 4400f9f3
/model/language_model/model/layers.14/post_attention_layernorm/Mul_output_0: 3e116d17
/model/language_model/model/layers.14/post_attention_layernorm/Constant_output_0_output: 3c810a14
onnx::MatMul_9770_output: 3ae4f5dc
ONNXTRT_Broadcast_7025_output: 32074ebd
/model/language_model/model/layers.13/self_attn/Neg_output_0: 3de13708
/model/language_model/model/layers.2/mlp/act_fn/Sigmoid_output_0: 3be1d3a7
backbone.model.language_model.model.layers.10.self_attn.q_norm.weight_output: 3d8818a1
/model/language_model/model/layers.9/input_layernorm/Mul_1_output_0: 3db739b3
/model/language_model/model/layers.1/post_attention_layernorm/Cast_output_0: 3e0be544
/model/language_model/model/layers.14/self_attn/Cast_5_output_0: 3a7f7efe
/model/language_model/model/layers.14/mlp/Mul_output_0: 3fc33900
/model/language_model/model/layers.3/self_attn/Transpose_1_output_0: 3f3dbb6c
onnx::MatMul_9730_output: 3a8269d4
/model/language_model/model/layers.1/post_attention_layernorm/Constant_3_output_0_output: 3c010a14
ONNXTRT_Broadcast_6778_output: 3c810a14
/model/language_model/model/layers.12/self_attn/Transpose_3_output_0: 3e9b2d41
/model/language_model/model/layers.1/post_attention_layernorm/Div_output_0: 3cfea5c8
/model/language_model/model/layers.6/self_attn/q_proj/MatMul_output_0: 3d680110
/model/language_model/model/layers.12/input_layernorm/ReduceMean_output_0: 44aecf48
/model/language_model/model/layers.13/self_attn/Slice_output_0: 3dbaff38
onnx::MatMul_9824_output: 3b032081
/model/vision_model/vision_model/embeddings/Slice_26_output_0: 3d63b6d6
/model/vision_model/vision_model/embeddings/Reshape_39_output_0: 3d63b6d6
/model/vision_model/vision_model/embeddings/Reshape_40_output_0: 3d7651b0
/model/language_model/model/layers.1/self_attn/Slice_3_output_0: 3e2a6b8b
/model/language_model/model/layers.11/self_attn/q_norm/Constant_2_output_0_output: 32074ebd
/model/language_model/model/layers.9/self_attn/q_norm/Div_output_0: 3cd2ddbd
ONNXTRT_Broadcast_7042_output: 3ae51143
/model/language_model/model/layers.3/post_attention_layernorm/Constant_output_0_output: 3c810a14
/model/language_model/model/layers.13/post_attention_layernorm/Mul_output_0: 3cfdfd11
/model/language_model/model/layers.6/self_attn/Transpose_3_output_0: 3f246ce7
/model/language_model/model/layers.6/self_attn/Expand_output_0: 3f246ce7
/model/language_model/model/layers.9/post_attention_layernorm/Constant_output_0_output: 3c810a14
/model/language_model/model/layers.13/input_layernorm/Div_output_0: 3b1e0682
/model/language_model/model/layers.4/self_attn/Neg_1_output_0: 3f66a344
/model/language_model/model/layers.11/post_attention_layernorm/ReduceMean_output_0: 44aecf3e
/model/language_model/model/layers.3/input_layernorm/Constant_2_output_0_output: 32074ebd
/model/language_model/model/layers.6/self_attn/k_norm/ReduceMean_output_0: 3c31f181
/model/language_model/model/layers.4/mlp/gate_proj/MatMul_output_0: 3d81f559
/model/language_model/model/layers.5/self_attn/MatMul_1_output_0: 3c24678b
/model/language_model/model/layers.13/self_attn/Slice_4_output_0: 4400f9f3
/model/language_model/model/layers.1/self_attn/Transpose_3_output_0: 3f784da5
/model/language_model/model/layers.2/self_attn/Slice_3_output_0: 3f6cb711
/model/language_model/model/layers.3/self_attn/Add_1_output_0: 3f3dba3d
/model/language_model/model/layers.5/self_attn/v_proj/MatMul_output_0: 3cb925a3
/model/language_model/model/layers.8/self_attn/q_norm/Mul_output_0: 3d737355
/model/language_model/model/layers.12/Add_output_0: 40ff84c6
/model/language_model/model/layers.10/post_attention_layernorm/Cast_1_output_0: 3df31eb9
/model/language_model/model/layers.1/self_attn/Expand_output_0: 3f784da5
ONNXTRT_Broadcast_4642_output: 3c810a14
/model/vision_model/vision_model/embeddings/Slice_27_output_0: 3d7651b0
ONNXTRT_Broadcast_3807_output: 32074ebd
/model/language_model/model/layers.4/self_attn/k_norm/Mul_output_0: 3d40042e
/model/language_model/model/layers.12/self_attn/Mul_3_output_0: 3d1a7fc7
/model/language_model/model/layers.6/input_layernorm/Mul_1_output_0: 3d00c19d
/model/language_model/model/layers.9/mlp/Mul_output_0: 3d17e7e7
/model/language_model/model/layers.12/input_layernorm/Sqrt_output_0: 405466f2
/model/language_model/model/layers.2/self_attn/Concat_4_output_0: 3f6cb711
/model/language_model/model/layers.15/input_layernorm/Constant_3_output_0_output: 3c010a14
/model/language_model/model/layers.1/post_attention_layernorm/Pow_output_0: 3ee398d5
/model/language_model/model/layers.1/post_attention_layernorm/Add_output_0: 3d37627b
/model/language_model/model/layers.3/self_attn/Reshape_7_output_0: 3c068415
ONNXTRT_Broadcast_3540_output: 32074ebd
onnx::MatMul_10041_output: 3b3b9234
onnx::MatMul_9761_output: 3a876cda
/model/language_model/model/layers.13/self_attn/Unsqueeze_19_output_0: 3e407804
/model/language_model/model/layers.8/self_attn/Mul_3_output_0: 3d22b29f
onnx::MatMul_10008_output: 3a96764d
ONNXTRT_Broadcast_4626_output: 3c1745fc
/model/language_model/model/layers.11/self_attn/Neg_output_0: 3d948ddc
/model/language_model/model/layers.6/input_layernorm/Cast_1_output_0: 3dfb3d78
/model/language_model/model/layers.10/self_attn/MatMul_output_0: 3fc118a6
/model/language_model/model/layers.13/self_attn/Reshape_1_output_0: 3eb41665
/model/language_model/model/layers.8/self_attn/k_norm/Constant_2_output_0_output: 32074ebd
/model/language_model/model/layers.9/self_attn/Slice_output_0: 3e18ddf9
/model/language_model/model/layers.15/self_attn/k_norm/Cast_output_0: 3f21bc78
/model/language_model/model/layers.13/self_attn/Reshape_4_output_0: 3db3f66a
/model/vision_model/vision_model/embeddings/Slice_28_output_0: 3d7651b0
/model/vision_model/vision_model/embeddings/Reshape_41_output_0: 3d7651b0
/model/vision_model/vision_model/embeddings/Concat_6_output_0: 3d68fca7
onnx::MatMul_10111_output: 3b337912
/model/vision_model/vision_model/embeddings/Unsqueeze_9_output_0: 3d68fca7
/model/vision_model/vision_model/encoder/layers.0/layer_norm1/LayerNormalization_output_0: 3c96d161
onnx::MatMul_8921_output: 3ac7d2e6
ONNXTRT_Broadcast_1088_output: 3ac7d2e6
/model/vision_model/vision_model/encoder/layers.0/self_attn/q_proj/MatMul_output_0: 3cd70bbb
backbone.model.vision_model.vision_model.encoder.layers.0.self_attn.q_proj.bias_output: 3d479b97
ONNXTRT_Broadcast_1090_output: 3d479b97
/model/vision_model/vision_model/encoder/layers.0/self_attn/q_proj/Add_output_0: 3d51491f
onnx::MatMul_8922_output: 3ad8d76f
ONNXTRT_Broadcast_1092_output: 3ad8d76f
/model/vision_model/vision_model/encoder/layers.0/self_attn/k_proj/MatMul_output_0: 3d12c7f5
backbone.model.vision_model.vision_model.encoder.layers.0.self_attn.k_proj.bias_output: 3c7314ca
ONNXTRT_Broadcast_1094_output: 3c7314ca
/model/vision_model/vision_model/encoder/layers.0/self_attn/k_proj/Add_output_0: 3d26b033
onnx::MatMul_8923_output: 3a5adf7f
ONNXTRT_Broadcast_1096_output: 3a5adf7f
/model/vision_model/vision_model/encoder/layers.0/self_attn/v_proj/MatMul_output_0: 3c86f729
backbone.model.vision_model.vision_model.encoder.layers.0.self_attn.v_proj.bias_output: 3abc98d2
ONNXTRT_Broadcast_1098_output: 3abc98d2
/model/vision_model/vision_model/encoder/layers.0/self_attn/v_proj/Add_output_0: 3c7a182b
/model/vision_model/vision_model/encoder/layers.0/self_attn/Reshape_output_0: 3d51491f
/model/vision_model/vision_model/encoder/layers.0/self_attn/Reshape_1_output_0: 3d26b033
/model/vision_model/vision_model/encoder/layers.0/self_attn/Reshape_2_output_0: 3c7a182b
/model/vision_model/vision_model/encoder/layers.0/self_attn/Transpose_output_0: 3c7a182b
/model/vision_model/vision_model/encoder/layers.0/self_attn/Transpose_1_output_0: 3d51491f
/model/vision_model/vision_model/encoder/layers.0/self_attn/Transpose_2_output_0: 3d26b033
/model/vision_model/vision_model/encoder/layers.0/self_attn/MatMul_output_0: 3fbf2e5f
/model/vision_model/vision_model/encoder/layers.0/self_attn/Constant_3_output_0_output: 3a7355c2
ONNXTRT_Broadcast_1103_output: 3a7355c2
/model/vision_model/vision_model/encoder/layers.0/self_attn/Mul_output_0: 3e344259
/model/vision_model/vision_model/encoder/layers.0/self_attn/Softmax_output: 3a7b7e63
/model/vision_model/vision_model/encoder/layers.0/self_attn/Softmax_output_0: 3a7b7e63
/model/vision_model/vision_model/encoder/layers.0/self_attn/Cast_output_0: 3a7b7e63
/model/vision_model/vision_model/encoder/layers.0/self_attn/Cast_1_output_0: 3a7b7e63
/model/vision_model/vision_model/encoder/layers.0/self_attn/MatMul_1_output_0: 3bd6e2ea
/model/vision_model/vision_model/encoder/layers.0/self_attn/Transpose_3_output_0: 3bd6e2ea
/model/vision_model/vision_model/encoder/layers.0/self_attn/Reshape_3_output_0: 3bd6e2ea
onnx::MatMul_8943_output: 3a863993
ONNXTRT_Broadcast_1107_output: 3a863993
/model/vision_model/vision_model/encoder/layers.0/self_attn/out_proj/MatMul_output_0: 3cb9a9a0
backbone.model.vision_model.vision_model.encoder.layers.0.self_attn.out_proj.bias_output: 3ccdb4b9
ONNXTRT_Broadcast_1109_output: 3ccdb4b9
/model/vision_model/vision_model/encoder/layers.0/self_attn/out_proj/Add_output_0: 3d0778d7
/model/vision_model/vision_model/encoder/layers.0/Add_output_0: 3d4bc9da
/model/vision_model/vision_model/encoder/layers.0/layer_norm2/LayerNormalization_output_0: 3d47cbbb
onnx::MatMul_8944_output: 3a722347
ONNXTRT_Broadcast_1117_output: 3a722347
/model/vision_model/vision_model/encoder/layers.0/mlp/fc1/MatMul_output_0: 3cff2147
backbone.model.vision_model.vision_model.encoder.layers.0.mlp.fc1.bias_output: 3d46a58b
ONNXTRT_Broadcast_1119_output: 3d46a58b
/model/vision_model/vision_model/encoder/layers.0/mlp/fc1/Add_output_0: 3da40678
/model/vision_model/vision_model/encoder/layers.0/mlp/activation_fn/Mul_output_0: 3f79d409
/model/vision_model/vision_model/encoder/layers.0/mlp/activation_fn/Mul_1_output_0: 408fc023
/model/vision_model/vision_model/encoder/layers.0/mlp/activation_fn/Constant_output_0_output: 39b89cab
ONNXTRT_Broadcast_1121_output: 39b89cab
/model/vision_model/vision_model/encoder/layers.0/mlp/activation_fn/Mul_2_output_0: 3e4da8a3
/model/vision_model/vision_model/encoder/layers.0/mlp/activation_fn/Add_output_0: 3e30d63d
/model/vision_model/vision_model/encoder/layers.0/mlp/activation_fn/Constant_1_output_0_output: 3bcde895
ONNXTRT_Broadcast_1123_output: 3bcde895
/model/vision_model/vision_model/encoder/layers.0/mlp/activation_fn/Mul_3_output_0: 3e0d16ef
/model/vision_model/vision_model/encoder/layers.0/mlp/activation_fn/Tanh_output_0: 3c010a14
/model/vision_model/vision_model/encoder/layers.0/mlp/activation_fn/Constant_2_output_0_output: 3c010a14
ONNXTRT_Broadcast_1125_output: 3c010a14
/model/vision_model/vision_model/encoder/layers.0/mlp/activation_fn/Add_1_output_0: 3c71f3e8
/model/vision_model/vision_model/encoder/layers.0/mlp/activation_fn/Mul_4_output_0: 3cf271ea
/model/vision_model/vision_model/encoder/layers.0/mlp/activation_fn/Constant_3_output_0_output: 3b810a14
ONNXTRT_Broadcast_1127_output: 3b810a14
/model/vision_model/vision_model/encoder/layers.0/mlp/activation_fn/Mul_5_output_0: 3c7271ea
onnx::MatMul_8945_output: 3aa65dfc
ONNXTRT_Broadcast_1129_output: 3aa65dfc
/model/vision_model/vision_model/encoder/layers.0/mlp/fc2/MatMul_output_0: 3db44405
backbone.model.vision_model.vision_model.encoder.layers.0.mlp.fc2.bias_output: 3d808cfa
ONNXTRT_Broadcast_1131_output: 3d808cfa
/model/vision_model/vision_model/encoder/layers.0/mlp/fc2/Add_output_0: 3d11b087
/model/vision_model/vision_model/encoder/layers.0/Add_1_output_0: 3d823d69
/model/vision_model/vision_model/encoder/layers.1/layer_norm1/LayerNormalization_output_0: 3d884afc
onnx::MatMul_8946_output: 3aae89f4
ONNXTRT_Broadcast_1139_output: 3aae89f4
/model/vision_model/vision_model/encoder/layers.1/self_attn/q_proj/MatMul_output_0: 3d4c971d
backbone.model.vision_model.vision_model.encoder.layers.1.self_attn.q_proj.bias_output: 3d164d8b
ONNXTRT_Broadcast_1141_output: 3d164d8b
/model/vision_model/vision_model/encoder/layers.1/self_attn/q_proj/Add_output_0: 3d94d002
onnx::MatMul_8947_output: 3ab4862c
ONNXTRT_Broadcast_1143_output: 3ab4862c
/model/vision_model/vision_model/encoder/layers.1/self_attn/k_proj/MatMul_output_0: 3d5cfc26
backbone.model.vision_model.vision_model.encoder.layers.1.self_attn.k_proj.bias_output: 3c2963d8
ONNXTRT_Broadcast_1145_output: 3c2963d8
/model/vision_model/vision_model/encoder/layers.1/self_attn/k_proj/Add_output_0: 3d73f9c6
onnx::MatMul_8948_output: 3a62f4ca
ONNXTRT_Broadcast_1147_output: 3a62f4ca
/model/vision_model/vision_model/encoder/layers.1/self_attn/v_proj/MatMul_output_0: 3cf51d8b
backbone.model.vision_model.vision_model.encoder.layers.1.self_attn.v_proj.bias_output: 3ad3c993
ONNXTRT_Broadcast_1149_output: 3ad3c993
/model/vision_model/vision_model/encoder/layers.1/self_attn/v_proj/Add_output_0: 3d0085f8
/model/vision_model/vision_model/encoder/layers.1/self_attn/Reshape_output_0: 3d94d002
/model/vision_model/vision_model/encoder/layers.1/self_attn/Reshape_1_output_0: 3d73f9c6
/model/vision_model/vision_model/encoder/layers.1/self_attn/Reshape_2_output_0: 3d0085f8
/model/vision_model/vision_model/encoder/layers.1/self_attn/Transpose_output_0: 3d0085f8
/model/vision_model/vision_model/encoder/layers.1/self_attn/Transpose_1_output_0: 3d94d002
/model/vision_model/vision_model/encoder/layers.1/self_attn/Transpose_2_output_0: 3d73f9c6
/model/vision_model/vision_model/encoder/layers.1/self_attn/MatMul_output_0: 4020376c
/model/vision_model/vision_model/encoder/layers.1/self_attn/Constant_3_output_0_output: 3a7355c2
ONNXTRT_Broadcast_1154_output: 3a7355c2
/model/vision_model/vision_model/encoder/layers.1/self_attn/Mul_output_0: 3e971042
/model/vision_model/vision_model/encoder/layers.1/self_attn/Softmax_output: 3aa88b3b
/model/vision_model/vision_model/encoder/layers.1/self_attn/Softmax_output_0: 3aa88b3b
/model/vision_model/vision_model/encoder/layers.1/self_attn/Cast_output_0: 3aa88b3b
/model/vision_model/vision_model/encoder/layers.1/self_attn/Cast_1_output_0: 3aa88b3b
/model/vision_model/vision_model/encoder/layers.1/self_attn/MatMul_1_output_0: 3c94c5f0
/model/vision_model/vision_model/encoder/layers.1/self_attn/Transpose_3_output_0: 3c94c5f0
/model/vision_model/vision_model/encoder/layers.1/self_attn/Reshape_3_output_0: 3c94c5f0
onnx::MatMul_8968_output: 3a7638f2
ONNXTRT_Broadcast_1158_output: 3a7638f2
/model/vision_model/vision_model/encoder/layers.1/self_attn/out_proj/MatMul_output_0: 3d20d081
backbone.model.vision_model.vision_model.encoder.layers.1.self_attn.out_proj.bias_output: 3d67f973
ONNXTRT_Broadcast_1160_output: 3d67f973
/model/vision_model/vision_model/encoder/layers.1/self_attn/out_proj/Add_output_0: 3d20b71f
/model/vision_model/vision_model/encoder/layers.1/Add_output_0: 3d162e14
hidden_states: 3e9b2357
ONNXTRT_Broadcast_7296_output: 3d1964a9
/model/vision_model/vision_model/encoder/layers.1/layer_norm2/LayerNormalization_output_0: 3d693133
onnx::MatMul_8969_output: 3a4bfc38
ONNXTRT_Broadcast_1168_output: 3a4bfc38
/model/vision_model/vision_model/encoder/layers.1/mlp/fc1/MatMul_output_0: 3d14a6ee
backbone.model.vision_model.vision_model.encoder.layers.1.mlp.fc1.bias_output: 3d112dab
ONNXTRT_Broadcast_1170_output: 3d112dab
/model/vision_model/vision_model/encoder/layers.1/mlp/fc1/Add_output_0: 3d6c16cb
/model/vision_model/vision_model/encoder/layers.1/mlp/activation_fn/Mul_output_0: 3e926cb2
/model/vision_model/vision_model/encoder/layers.1/mlp/activation_fn/Mul_1_output_0: 3ffd7a29
/model/vision_model/vision_model/encoder/layers.1/mlp/activation_fn/Constant_output_0_output: 39b89cab
ONNXTRT_Broadcast_1172_output: 39b89cab
/model/vision_model/vision_model/encoder/layers.1/mlp/activation_fn/Mul_2_output_0: 3db55202
/model/vision_model/vision_model/encoder/layers.1/mlp/activation_fn/Add_output_0: 3dfeb238
/model/vision_model/vision_model/encoder/layers.1/mlp/activation_fn/Constant_1_output_0_output: 3bcde895
ONNXTRT_Broadcast_1174_output: 3bcde895
/model/vision_model/vision_model/encoder/layers.1/mlp/activation_fn/Mul_3_output_0: 3dcb35b1
/model/vision_model/vision_model/encoder/layers.1/mlp/activation_fn/Tanh_output_0: 3c010a14
/model/vision_model/vision_model/encoder/layers.1/mlp/activation_fn/Constant_2_output_0_output: 3c010a14
ONNXTRT_Broadcast_1176_output: 3c010a14
/model/vision_model/vision_model/encoder/layers.1/mlp/activation_fn/Add_1_output_0: 3c71f3e8
/model/vision_model/vision_model/encoder/layers.1/mlp/activation_fn/Mul_4_output_0: 3cf37c0e
/model/vision_model/vision_model/encoder/layers.1/mlp/activation_fn/Constant_3_output_0_output: 3b810a14
ONNXTRT_Broadcast_1178_output: 3b810a14
/model/vision_model/vision_model/encoder/layers.1/mlp/activation_fn/Mul_5_output_0: 3c737c0e
onnx::MatMul_8970_output: 3a995851
ONNXTRT_Broadcast_1180_output: 3a995851
/model/vision_model/vision_model/encoder/layers.1/mlp/fc2/MatMul_output_0: 3d84b9ce
backbone.model.vision_model.vision_model.encoder.layers.1.mlp.fc2.bias_output: 3ce4250a
ONNXTRT_Broadcast_1182_output: 3ce4250a
/model/vision_model/vision_model/encoder/layers.1/mlp/fc2/Add_output_0: 3cada1b3
/model/vision_model/vision_model/encoder/layers.1/Add_1_output_0: 3d3003fe
backbone.model.language_model.model.norm.weight_output: 3d1964a9
/model/language_model/model/norm/Cast_1_output_0: 3e27a1dd
/model/vision_model/vision_model/encoder/layers.2/layer_norm1/LayerNormalization_output_0: 3d95af9f
onnx::MatMul_8971_output: 3aa476ce
ONNXTRT_Broadcast_1190_output: 3aa476ce
/model/vision_model/vision_model/encoder/layers.2/self_attn/q_proj/MatMul_output_0: 3d3721b9
backbone.model.vision_model.vision_model.encoder.layers.2.self_attn.q_proj.bias_output: 3d51b9e4
ONNXTRT_Broadcast_1192_output: 3d51b9e4
/model/vision_model/vision_model/encoder/layers.2/self_attn/q_proj/Add_output_0: 3d8701f3
onnx::MatMul_8972_output: 3a9f65ab
ONNXTRT_Broadcast_1194_output: 3a9f65ab
/model/vision_model/vision_model/encoder/layers.2/self_attn/k_proj/MatMul_output_0: 3d443b75
backbone.model.vision_model.vision_model.encoder.layers.2.self_attn.k_proj.bias_output: 3c53be3c
ONNXTRT_Broadcast_1196_output: 3c53be3c
/model/vision_model/vision_model/encoder/layers.2/self_attn/k_proj/Add_output_0: 3d559f17
onnx::MatMul_8973_output: 3a4dc891
ONNXTRT_Broadcast_1198_output: 3a4dc891
/model/vision_model/vision_model/encoder/layers.2/self_attn/v_proj/MatMul_output_0: 3cb0a74f
backbone.model.vision_model.vision_model.encoder.layers.2.self_attn.v_proj.bias_output: 3ac2a030
ONNXTRT_Broadcast_1200_output: 3ac2a030
/model/vision_model/vision_model/encoder/layers.2/self_attn/v_proj/Add_output_0: 3cb03baa
/model/vision_model/vision_model/encoder/layers.2/self_attn/Reshape_output_0: 3d8701f3
/model/vision_model/vision_model/encoder/layers.2/self_attn/Reshape_1_output_0: 3d559f17
/model/vision_model/vision_model/encoder/layers.2/self_attn/Reshape_2_output_0: 3cb03baa
/model/vision_model/vision_model/encoder/layers.2/self_attn/Transpose_output_0: 3cb03baa
/model/vision_model/vision_model/encoder/layers.2/self_attn/Transpose_1_output_0: 3d8701f3
/model/vision_model/vision_model/encoder/layers.2/self_attn/Transpose_2_output_0: 3d559f17
/model/vision_model/vision_model/encoder/layers.2/self_attn/MatMul_output_0: 3fcbdd26
/model/vision_model/vision_model/encoder/layers.2/self_attn/Constant_3_output_0_output: 3a7355c2
ONNXTRT_Broadcast_1205_output: 3a7355c2
/model/vision_model/vision_model/encoder/layers.2/self_attn/Mul_output_0: 3e4037a4
/model/vision_model/vision_model/encoder/layers.2/self_attn/Softmax_output: 3a928d9c
/model/vision_model/vision_model/encoder/layers.2/self_attn/Softmax_output_0: 3a928d9c
/model/vision_model/vision_model/encoder/layers.2/self_attn/Cast_output_0: 3a928d9c
/model/vision_model/vision_model/encoder/layers.2/self_attn/Cast_1_output_0: 3a928d9c
/model/vision_model/vision_model/encoder/layers.2/self_attn/MatMul_1_output_0: 3c527823
/model/vision_model/vision_model/encoder/layers.2/self_attn/Transpose_3_output_0: 3c527823
/model/vision_model/vision_model/encoder/layers.2/self_attn/Reshape_3_output_0: 3c527823
onnx::MatMul_8993_output: 3ad7e9b3
ONNXTRT_Broadcast_1209_output: 3ad7e9b3
/model/vision_model/vision_model/encoder/layers.2/self_attn/out_proj/MatMul_output_0: 3c93e625
backbone.model.vision_model.vision_model.encoder.layers.2.self_attn.out_proj.bias_output: 3cc4af7f
ONNXTRT_Broadcast_1211_output: 3cc4af7f
/model/vision_model/vision_model/encoder/layers.2/self_attn/out_proj/Add_output_0: 3ccebd1e
/model/vision_model/vision_model/encoder/layers.2/Add_output_0: 3cf92478
/model/language_model/model/norm/Mul_output_0: 3e27a1dd
/model/language_model/model/norm/Div_output_0: 3aa0c0ae
/model/vision_model/vision_model/encoder/layers.2/layer_norm2/LayerNormalization_output_0: 3d6b40cb
onnx::MatMul_8994_output: 3a246204
ONNXTRT_Broadcast_1219_output: 3a246204
/model/vision_model/vision_model/encoder/layers.2/mlp/fc1/MatMul_output_0: 3d0dfb69
backbone.model.vision_model.vision_model.encoder.layers.2.mlp.fc1.bias_output: 3d1737d0
ONNXTRT_Broadcast_1221_output: 3d1737d0
/model/vision_model/vision_model/encoder/layers.2/mlp/fc1/Add_output_0: 3d42cdbd
/model/vision_model/vision_model/encoder/layers.2/mlp/activation_fn/Mul_output_0: 3e8b15e2
/model/vision_model/vision_model/encoder/layers.2/mlp/activation_fn/Mul_1_output_0: 3f915607
/model/vision_model/vision_model/encoder/layers.2/mlp/activation_fn/Constant_output_0_output: 39b89cab
ONNXTRT_Broadcast_1223_output: 39b89cab
/model/vision_model/vision_model/encoder/layers.2/mlp/activation_fn/Mul_2_output_0: 3d4fed53
/model/vision_model/vision_model/encoder/layers.2/mlp/activation_fn/Add_output_0: 3e067b7a
/model/vision_model/vision_model/encoder/layers.2/mlp/activation_fn/Constant_1_output_0_output: 3bcde895
ONNXTRT_Broadcast_1225_output: 3bcde895
/model/vision_model/vision_model/encoder/layers.2/mlp/activation_fn/Mul_3_output_0: 3dd69809
/model/vision_model/vision_model/encoder/layers.2/mlp/activation_fn/Tanh_output_0: 3c010a14
/model/vision_model/vision_model/encoder/layers.2/mlp/activation_fn/Constant_2_output_0_output: 3c010a14
ONNXTRT_Broadcast_1227_output: 3c010a14
/model/vision_model/vision_model/encoder/layers.2/mlp/activation_fn/Add_1_output_0: 3c61d3a7
/model/vision_model/vision_model/encoder/layers.2/mlp/activation_fn/Mul_4_output_0: 3cb38944
/model/vision_model/vision_model/encoder/layers.2/mlp/activation_fn/Constant_3_output_0_output: 3b810a14
ONNXTRT_Broadcast_1229_output: 3b810a14
/model/vision_model/vision_model/encoder/layers.2/mlp/activation_fn/Mul_5_output_0: 3c338944
onnx::MatMul_8995_output: 3a44c5ec
ONNXTRT_Broadcast_1231_output: 3a44c5ec
/model/vision_model/vision_model/encoder/layers.2/mlp/fc2/MatMul_output_0: 3d66c10e
backbone.model.vision_model.vision_model.encoder.layers.2.mlp.fc2.bias_output: 3bf8162c
ONNXTRT_Broadcast_1233_output: 3bf8162c
/model/vision_model/vision_model/encoder/layers.2/mlp/fc2/Add_output_0: 3c9db331
/model/vision_model/vision_model/encoder/layers.2/Add_1_output_0: 3cf7268d
ONNXTRT_Broadcast_7294_output: 3c010a14
/model/language_model/model/norm/Constant_3_output_0_output: 3c010a14
/model/vision_model/vision_model/encoder/layers.3/layer_norm1/LayerNormalization_output_0: 3dcdfdea
onnx::MatMul_8996_output: 3a893275
ONNXTRT_Broadcast_1241_output: 3a893275
/model/vision_model/vision_model/encoder/layers.3/self_attn/q_proj/MatMul_output_0: 3d48ed54
backbone.model.vision_model.vision_model.encoder.layers.3.self_attn.q_proj.bias_output: 3d60d851
ONNXTRT_Broadcast_1243_output: 3d60d851
/model/vision_model/vision_model/encoder/layers.3/self_attn/q_proj/Add_output_0: 3db6a6d9
onnx::MatMul_8997_output: 3aa5761c
ONNXTRT_Broadcast_1245_output: 3aa5761c
/model/vision_model/vision_model/encoder/layers.3/self_attn/k_proj/MatMul_output_0: 3d49a074
backbone.model.vision_model.vision_model.encoder.layers.3.self_attn.k_proj.bias_output: 3c44aa75
ONNXTRT_Broadcast_1247_output: 3c44aa75
/model/vision_model/vision_model/encoder/layers.3/self_attn/k_proj/Add_output_0: 3d58069e
onnx::MatMul_8998_output: 3a66e5ec
ONNXTRT_Broadcast_1249_output: 3a66e5ec
/model/vision_model/vision_model/encoder/layers.3/self_attn/v_proj/MatMul_output_0: 3cb13f6e
backbone.model.vision_model.vision_model.encoder.layers.3.self_attn.v_proj.bias_output: 3ab89326
ONNXTRT_Broadcast_1251_output: 3ab89326
/model/vision_model/vision_model/encoder/layers.3/self_attn/v_proj/Add_output_0: 3cac35cc
/model/vision_model/vision_model/encoder/layers.3/self_attn/Reshape_output_0: 3db6a6d9
/model/vision_model/vision_model/encoder/layers.3/self_attn/Reshape_1_output_0: 3d58069e
/model/vision_model/vision_model/encoder/layers.3/self_attn/Reshape_2_output_0: 3cac35cc
/model/vision_model/vision_model/encoder/layers.3/self_attn/Transpose_output_0: 3cac35cc
/model/vision_model/vision_model/encoder/layers.3/self_attn/Transpose_1_output_0: 3db6a6d9
/model/vision_model/vision_model/encoder/layers.3/self_attn/Transpose_2_output_0: 3d58069e
/model/vision_model/vision_model/encoder/layers.3/self_attn/MatMul_output_0: 3fced6e5
/model/vision_model/vision_model/encoder/layers.3/self_attn/Constant_3_output_0_output: 3a7355c2
ONNXTRT_Broadcast_1256_output: 3a7355c2
/model/vision_model/vision_model/encoder/layers.3/self_attn/Mul_output_0: 3e4305de
/model/vision_model/vision_model/encoder/layers.3/self_attn/Softmax_output: 3a9ab40e
/model/vision_model/vision_model/encoder/layers.3/self_attn/Softmax_output_0: 3a9ab40e
/model/vision_model/vision_model/encoder/layers.3/self_attn/Cast_output_0: 3a9ab40e
/model/vision_model/vision_model/encoder/layers.3/self_attn/Cast_1_output_0: 3a9ab40e
/model/vision_model/vision_model/encoder/layers.3/self_attn/MatMul_1_output_0: 3c683aa4
/model/vision_model/vision_model/encoder/layers.3/self_attn/Transpose_3_output_0: 3c683aa4
/model/vision_model/vision_model/encoder/layers.3/self_attn/Reshape_3_output_0: 3c683aa4
onnx::MatMul_9018_output: 3a894285
ONNXTRT_Broadcast_1260_output: 3a894285
/model/vision_model/vision_model/encoder/layers.3/self_attn/out_proj/MatMul_output_0: 3c8cd25d
backbone.model.vision_model.vision_model.encoder.layers.3.self_attn.out_proj.bias_output: 3c1e5b97
ONNXTRT_Broadcast_1262_output: 3c1e5b97
/model/vision_model/vision_model/encoder/layers.3/self_attn/out_proj/Add_output_0: 3c916c4a
/model/vision_model/vision_model/encoder/layers.3/Add_output_0: 3d0823ae
/model/language_model/model/norm/Sqrt_output_0: 3f2335f3
/model/language_model/model/norm/Add_output_0: 44aed3a2
/model/vision_model/vision_model/encoder/layers.3/layer_norm2/LayerNormalization_output_0: 3d745935
onnx::MatMul_9019_output: 3a227b16
ONNXTRT_Broadcast_1270_output: 3a227b16
/model/vision_model/vision_model/encoder/layers.3/mlp/fc1/MatMul_output_0: 3cf61edb
backbone.model.vision_model.vision_model.encoder.layers.3.mlp.fc1.bias_output: 3d1635bb
ONNXTRT_Broadcast_1272_output: 3d1635bb
/model/vision_model/vision_model/encoder/layers.3/mlp/fc1/Add_output_0: 3d51ced2
/model/vision_model/vision_model/encoder/layers.3/mlp/activation_fn/Mul_output_0: 3e926345
/model/vision_model/vision_model/encoder/layers.3/mlp/activation_fn/Mul_1_output_0: 3faa2c45
/model/vision_model/vision_model/encoder/layers.3/mlp/activation_fn/Constant_output_0_output: 39b89cab
ONNXTRT_Broadcast_1274_output: 39b89cab
/model/vision_model/vision_model/encoder/layers.3/mlp/activation_fn/Mul_2_output_0: 3d7375d6
/model/vision_model/vision_model/encoder/layers.3/mlp/activation_fn/Add_output_0: 3e260ae9
/model/vision_model/vision_model/encoder/layers.3/mlp/activation_fn/Constant_1_output_0_output: 3bcde895
ONNXTRT_Broadcast_1276_output: 3bcde895
/model/vision_model/vision_model/encoder/layers.3/mlp/activation_fn/Mul_3_output_0: 3e047a34
/model/vision_model/vision_model/encoder/layers.3/mlp/activation_fn/Tanh_output_0: 3c010a14
/model/vision_model/vision_model/encoder/layers.3/mlp/activation_fn/Constant_2_output_0_output: 3c010a14
ONNXTRT_Broadcast_1278_output: 3c010a14
/model/vision_model/vision_model/encoder/layers.3/mlp/activation_fn/Add_1_output_0: 3c6185ac
/model/vision_model/vision_model/encoder/layers.3/mlp/activation_fn/Mul_4_output_0: 3c305df5
/model/vision_model/vision_model/encoder/layers.3/mlp/activation_fn/Constant_3_output_0_output: 3b810a14
ONNXTRT_Broadcast_1280_output: 3b810a14
/model/vision_model/vision_model/encoder/layers.3/mlp/activation_fn/Mul_5_output_0: 3bb05df5
onnx::MatMul_9020_output: 3a6b0d5b
ONNXTRT_Broadcast_1282_output: 3a6b0d5b
/model/vision_model/vision_model/encoder/layers.3/mlp/fc2/MatMul_output_0: 3d5ee4e3
backbone.model.vision_model.vision_model.encoder.layers.3.mlp.fc2.bias_output: 3c58f4ea
ONNXTRT_Broadcast_1284_output: 3c58f4ea
/model/vision_model/vision_model/encoder/layers.3/mlp/fc2/Add_output_0: 3c921bc4
/model/vision_model/vision_model/encoder/layers.3/Add_1_output_0: 3cea566d
ONNXTRT_Broadcast_7292_output: 32074ebd
/model/language_model/model/norm/Constant_2_output_0_output: 32074ebd
/model/vision_model/vision_model/encoder/layers.4/layer_norm1/LayerNormalization_output_0: 3dce0f6a
onnx::MatMul_9021_output: 3a7b3367
ONNXTRT_Broadcast_1292_output: 3a7b3367
/model/vision_model/vision_model/encoder/layers.4/self_attn/q_proj/MatMul_output_0: 3d31fdd9
backbone.model.vision_model.vision_model.encoder.layers.4.self_attn.q_proj.bias_output: 3d923ede
ONNXTRT_Broadcast_1294_output: 3d923ede
/model/vision_model/vision_model/encoder/layers.4/self_attn/q_proj/Add_output_0: 3dcb5539
onnx::MatMul_9022_output: 3abc97bf
ONNXTRT_Broadcast_1296_output: 3abc97bf
/model/vision_model/vision_model/encoder/layers.4/self_attn/k_proj/MatMul_output_0: 3d39055a
backbone.model.vision_model.vision_model.encoder.layers.4.self_attn.k_proj.bias_output: 3c4cc275
ONNXTRT_Broadcast_1298_output: 3c4cc275
/model/vision_model/vision_model/encoder/layers.4/self_attn/k_proj/Add_output_0: 3d548616
onnx::MatMul_9023_output: 3a0938d2
ONNXTRT_Broadcast_1300_output: 3a0938d2
/model/vision_model/vision_model/encoder/layers.4/self_attn/v_proj/MatMul_output_0: 3cca9394
backbone.model.vision_model.vision_model.encoder.layers.4.self_attn.v_proj.bias_output: 3ac9b143
ONNXTRT_Broadcast_1302_output: 3ac9b143
/model/vision_model/vision_model/encoder/layers.4/self_attn/v_proj/Add_output_0: 3cc8bd29
/model/vision_model/vision_model/encoder/layers.4/self_attn/Reshape_output_0: 3dcb5539
/model/vision_model/vision_model/encoder/layers.4/self_attn/Reshape_1_output_0: 3d548616
/model/vision_model/vision_model/encoder/layers.4/self_attn/Reshape_2_output_0: 3cc8bd29
/model/vision_model/vision_model/encoder/layers.4/self_attn/Transpose_output_0: 3cc8bd29
/model/vision_model/vision_model/encoder/layers.4/self_attn/Transpose_1_output_0: 3dcb5539
/model/vision_model/vision_model/encoder/layers.4/self_attn/Transpose_2_output_0: 3d548616
/model/vision_model/vision_model/encoder/layers.4/self_attn/MatMul_output_0: 3fa96942
/model/vision_model/vision_model/encoder/layers.4/self_attn/Constant_3_output_0_output: 3a7355c2
ONNXTRT_Broadcast_1307_output: 3a7355c2
/model/vision_model/vision_model/encoder/layers.4/self_attn/Mul_output_0: 3e1fbb9e
/model/vision_model/vision_model/encoder/layers.4/self_attn/Softmax_output: 3a98d264
/model/vision_model/vision_model/encoder/layers.4/self_attn/Softmax_output_0: 3a98d264
/model/vision_model/vision_model/encoder/layers.4/self_attn/Cast_output_0: 3a98d264
/model/vision_model/vision_model/encoder/layers.4/self_attn/Cast_1_output_0: 3a98d264
/model/vision_model/vision_model/encoder/layers.4/self_attn/MatMul_1_output_0: 3c5e6ecd
/model/vision_model/vision_model/encoder/layers.4/self_attn/Transpose_3_output_0: 3c5e6ecd
/model/vision_model/vision_model/encoder/layers.4/self_attn/Reshape_3_output_0: 3c5e6ecd
onnx::MatMul_9043_output: 3a49b0e2
ONNXTRT_Broadcast_1311_output: 3a49b0e2
/model/vision_model/vision_model/encoder/layers.4/self_attn/out_proj/MatMul_output_0: 3caa2ef5
backbone.model.vision_model.vision_model.encoder.layers.4.self_attn.out_proj.bias_output: 3bbf34ea
ONNXTRT_Broadcast_1313_output: 3bbf34ea
/model/vision_model/vision_model/encoder/layers.4/self_attn/out_proj/Add_output_0: 3ca4bcdf
/model/vision_model/vision_model/encoder/layers.4/Add_output_0: 3ce04a64
/model/language_model/model/norm/ReduceMean_output_0: 44aed3a2
/model/language_model/model/norm/Pow_output_0: 49420ee2
/model/vision_model/vision_model/encoder/layers.4/layer_norm2/LayerNormalization_output_0: 3d927d15
onnx::MatMul_9044_output: 3a20d1a3
ONNXTRT_Broadcast_1321_output: 3a20d1a3
/model/vision_model/vision_model/encoder/layers.4/mlp/fc1/MatMul_output_0: 3d0c6c8e
backbone.model.vision_model.vision_model.encoder.layers.4.mlp.fc1.bias_output: 3d1533a7
ONNXTRT_Broadcast_1323_output: 3d1533a7
/model/vision_model/vision_model/encoder/layers.4/mlp/fc1/Add_output_0: 3d5355e2
/model/vision_model/vision_model/encoder/layers.4/mlp/activation_fn/Mul_output_0: 3e8f2ac3
/model/vision_model/vision_model/encoder/layers.4/mlp/activation_fn/Mul_1_output_0: 3fc0c197
/model/vision_model/vision_model/encoder/layers.4/mlp/activation_fn/Constant_output_0_output: 39b89cab
ONNXTRT_Broadcast_1325_output: 39b89cab
/model/vision_model/vision_model/encoder/layers.4/mlp/activation_fn/Mul_2_output_0: 3d89e27c
/model/vision_model/vision_model/encoder/layers.4/mlp/activation_fn/Add_output_0: 3e101dcc
/model/vision_model/vision_model/encoder/layers.4/mlp/activation_fn/Constant_1_output_0_output: 3bcde895
ONNXTRT_Broadcast_1327_output: 3bcde895
/model/vision_model/vision_model/encoder/layers.4/mlp/activation_fn/Mul_3_output_0: 3de5f78c
/model/vision_model/vision_model/encoder/layers.4/mlp/activation_fn/Tanh_output_0: 3c010a14
/model/vision_model/vision_model/encoder/layers.4/mlp/activation_fn/Constant_2_output_0_output: 3c010a14
ONNXTRT_Broadcast_1329_output: 3c010a14
/model/vision_model/vision_model/encoder/layers.4/mlp/activation_fn/Add_1_output_0: 3c51b367
/model/vision_model/vision_model/encoder/layers.4/mlp/activation_fn/Mul_4_output_0: 3c76e78b
/model/vision_model/vision_model/encoder/layers.4/mlp/activation_fn/Constant_3_output_0_output: 3b810a14
ONNXTRT_Broadcast_1331_output: 3b810a14
/model/vision_model/vision_model/encoder/layers.4/mlp/activation_fn/Mul_5_output_0: 3bf6e78b
onnx::MatMul_9045_output: 3a29a9d4
ONNXTRT_Broadcast_1333_output: 3a29a9d4
/model/vision_model/vision_model/encoder/layers.4/mlp/fc2/MatMul_output_0: 3d47c578
backbone.model.vision_model.vision_model.encoder.layers.4.mlp.fc2.bias_output: 3b84bdbb
ONNXTRT_Broadcast_1335_output: 3b84bdbb
/model/vision_model/vision_model/encoder/layers.4/mlp/fc2/Add_output_0: 3c9ab1a1
/model/vision_model/vision_model/encoder/layers.4/Add_1_output_0: 3cdc5f70
ONNXTRT_Broadcast_7290_output: 3c810a14
/model/language_model/model/norm/Constant_output_0_output: 3c810a14
/model/vision_model/vision_model/encoder/layers.5/layer_norm1/LayerNormalization_output_0: 3de1313d
onnx::MatMul_9046_output: 3a811932
ONNXTRT_Broadcast_1343_output: 3a811932
/model/vision_model/vision_model/encoder/layers.5/self_attn/q_proj/MatMul_output_0: 3d3397e0
backbone.model.vision_model.vision_model.encoder.layers.5.self_attn.q_proj.bias_output: 3d4ac0e2
ONNXTRT_Broadcast_1345_output: 3d4ac0e2
/model/vision_model/vision_model/encoder/layers.5/self_attn/q_proj/Add_output_0: 3d9e2a1d
onnx::MatMul_9047_output: 3aab8316
ONNXTRT_Broadcast_1347_output: 3aab8316
/model/vision_model/vision_model/encoder/layers.5/self_attn/k_proj/MatMul_output_0: 3d3af5cc
backbone.model.vision_model.vision_model.encoder.layers.5.self_attn.k_proj.bias_output: 3c3a81d4
ONNXTRT_Broadcast_1349_output: 3c3a81d4
/model/vision_model/vision_model/encoder/layers.5/self_attn/k_proj/Add_output_0: 3d551ecd
onnx::MatMul_9048_output: 3a195851
ONNXTRT_Broadcast_1351_output: 3a195851
/model/vision_model/vision_model/encoder/layers.5/self_attn/v_proj/MatMul_output_0: 3cc6fdbe
backbone.model.vision_model.vision_model.encoder.layers.5.self_attn.v_proj.bias_output: 3a7810e2
ONNXTRT_Broadcast_1353_output: 3a7810e2
